{
  "version": "1.0",
  "truncation": null,
  "padding": null,
  "added_tokens": [
    {
      "id": 0,
      "content": "<|begin_of_text|>",
      "single_word": false,
      "lstrip": false,
      "rstrip": false,
      "normalized": false,
      "special": true
    },
    {
      "id": 1,
      "content": "<|end_of_text|>",
      "single_word": false,
      "lstrip": false,
      "rstrip": false,
      "normalized": false,
      "special": true
    },
    {
      "id": 2,
      "content": "<|reserved_special_token_0|>",
      "single_word": false,
      "lstrip": false,
      "rstrip": false,
      "normalized": false,
      "special": true
    },
    {
      "id": 3,
      "content": "<|reserved_special_token_1|>",
      "single_word": false,
      "lstrip": false,
      "rstrip": false,
      "normalized": false,
      "special": true
    },
    {
      "id": 4,
      "content": "<|reserved_special_token_2|>",
      "single_word": false,
      "lstrip": false,
      "rstrip": false,
      "normalized": false,
      "special": true
    },
    {
      "id": 5,
      "content": "<|reserved_special_token_3|>",
      "single_word": false,
      "lstrip": false,
      "rstrip": false,
      "normalized": false,
      "special": true
    },
    {
      "id": 6,
      "content": "<|start_header_id|>",
      "single_word": false,
      "lstrip": false,
      "rstrip": false,
      "normalized": false,
      "special": true
    },
    {
      "id": 7,
      "content": "<|end_header_id|>",
      "single_word": false,
      "lstrip": false,
      "rstrip": false,
      "normalized": false,
      "special": true
    },
    {
      "id": 8,
      "content": "<|reserved_special_token_4|>",
      "single_word": false,
      "lstrip": false,
      "rstrip": false,
      "normalized": false,
      "special": true
    },
    {
      "id": 9,
      "content": "<|eot_id|>",
      "single_word": false,
      "lstrip": false,
      "rstrip": false,
      "normalized": false,
      "special": true
    },
    {
      "id": 10,
      "content": "<|reserved_special_token_5|>",
      "single_word": false,
      "lstrip": false,
      "rstrip": false,
      "normalized": false,
      "special": true
    },
    {
      "id": 11,
      "content": "<|reserved_special_token_6|>",
      "single_word": false,
      "lstrip": false,
      "rstrip": false,
      "normalized": false,
      "special": true
    },
    {
      "id": 12,
      "content": "<|reserved_special_token_7|>",
      "single_word": false,
      "lstrip": false,
      "rstrip": false,
      "normalized": false,
      "special": true
    },
    {
      "id": 13,
      "content": "<|reserved_special_token_8|>",
      "single_word": false,
      "lstrip": false,
      "rstrip": false,
      "normalized": false,
      "special": true
    },
    {
      "id": 14,
      "content": "<|reserved_special_token_9|>",
      "single_word": false,
      "lstrip": false,
      "rstrip": false,
      "normalized": false,
      "special": true
    },
    {
      "id": 15,
      "content": "<|reserved_special_token_10|>",
      "single_word": false,
      "lstrip": false,
      "rstrip": false,
      "normalized": false,
      "special": true
    },
    {
      "id": 16,
      "content": "<|reserved_special_token_11|>",
      "single_word": false,
      "lstrip": false,
      "rstrip": false,
      "normalized": false,
      "special": true
    },
    {
      "id": 17,
      "content": "<|reserved_special_token_12|>",
      "single_word": false,
      "lstrip": false,
      "rstrip": false,
      "normalized": false,
      "special": true
    },
    {
      "id": 18,
      "content": "<|reserved_special_token_13|>",
      "single_word": false,
      "lstrip": false,
      "rstrip": false,
      "normalized": false,
      "special": true
    },
    {
      "id": 19,
      "content": "<|reserved_special_token_14|>",
      "single_word": false,
      "lstrip": false,
      "rstrip": false,
      "normalized": false,
      "special": true
    },
    {
      "id": 20,
      "content": "<|reserved_special_token_15|>",
      "single_word": false,
      "lstrip": false,
      "rstrip": false,
      "normalized": false,
      "special": true
    },
    {
      "id": 21,
      "content": "<|reserved_special_token_16|>",
      "single_word": false,
      "lstrip": false,
      "rstrip": false,
      "normalized": false,
      "special": true
    },
    {
      "id": 22,
      "content": "<|reserved_special_token_17|>",
      "single_word": false,
      "lstrip": false,
      "rstrip": false,
      "normalized": false,
      "special": true
    },
    {
      "id": 23,
      "content": "<|reserved_special_token_18|>",
      "single_word": false,
      "lstrip": false,
      "rstrip": false,
      "normalized": false,
      "special": true
    },
    {
      "id": 24,
      "content": "<|reserved_special_token_19|>",
      "single_word": false,
      "lstrip": false,
      "rstrip": false,
      "normalized": false,
      "special": true
    },
    {
      "id": 25,
      "content": "<|reserved_special_token_20|>",
      "single_word": false,
      "lstrip": false,
      "rstrip": false,
      "normalized": false,
      "special": true
    },
    {
      "id": 26,
      "content": "<|reserved_special_token_21|>",
      "single_word": false,
      "lstrip": false,
      "rstrip": false,
      "normalized": false,
      "special": true
    },
    {
      "id": 27,
      "content": "<|reserved_special_token_22|>",
      "single_word": false,
      "lstrip": false,
      "rstrip": false,
      "normalized": false,
      "special": true
    },
    {
      "id": 28,
      "content": "<|reserved_special_token_23|>",
      "single_word": false,
      "lstrip": false,
      "rstrip": false,
      "normalized": false,
      "special": true
    },
    {
      "id": 29,
      "content": "<|reserved_special_token_24|>",
      "single_word": false,
      "lstrip": false,
      "rstrip": false,
      "normalized": false,
      "special": true
    },
    {
      "id": 30,
      "content": "<|reserved_special_token_25|>",
      "single_word": false,
      "lstrip": false,
      "rstrip": false,
      "normalized": false,
      "special": true
    },
    {
      "id": 31,
      "content": "<|reserved_special_token_26|>",
      "single_word": false,
      "lstrip": false,
      "rstrip": false,
      "normalized": false,
      "special": true
    },
    {
      "id": 32,
      "content": "<|reserved_special_token_27|>",
      "single_word": false,
      "lstrip": false,
      "rstrip": false,
      "normalized": false,
      "special": true
    },
    {
      "id": 33,
      "content": "<|reserved_special_token_28|>",
      "single_word": false,
      "lstrip": false,
      "rstrip": false,
      "normalized": false,
      "special": true
    },
    {
      "id": 34,
      "content": "<|reserved_special_token_29|>",
      "single_word": false,
      "lstrip": false,
      "rstrip": false,
      "normalized": false,
      "special": true
    },
    {
      "id": 35,
      "content": "<|reserved_special_token_30|>",
      "single_word": false,
      "lstrip": false,
      "rstrip": false,
      "normalized": false,
      "special": true
    },
    {
      "id": 36,
      "content": "<|reserved_special_token_31|>",
      "single_word": false,
      "lstrip": false,
      "rstrip": false,
      "normalized": false,
      "special": true
    },
    {
      "id": 37,
      "content": "<|reserved_special_token_32|>",
      "single_word": false,
      "lstrip": false,
      "rstrip": false,
      "normalized": false,
      "special": true
    },
    {
      "id": 38,
      "content": "<|reserved_special_token_33|>",
      "single_word": false,
      "lstrip": false,
      "rstrip": false,
      "normalized": false,
      "special": true
    },
    {
      "id": 39,
      "content": "<|reserved_special_token_34|>",
      "single_word": false,
      "lstrip": false,
      "rstrip": false,
      "normalized": false,
      "special": true
    },
    {
      "id": 40,
      "content": "<|reserved_special_token_35|>",
      "single_word": false,
      "lstrip": false,
      "rstrip": false,
      "normalized": false,
      "special": true
    },
    {
      "id": 41,
      "content": "<|reserved_special_token_36|>",
      "single_word": false,
      "lstrip": false,
      "rstrip": false,
      "normalized": false,
      "special": true
    },
    {
      "id": 42,
      "content": "<|reserved_special_token_37|>",
      "single_word": false,
      "lstrip": false,
      "rstrip": false,
      "normalized": false,
      "special": true
    },
    {
      "id": 43,
      "content": "<|reserved_special_token_38|>",
      "single_word": false,
      "lstrip": false,
      "rstrip": false,
      "normalized": false,
      "special": true
    },
    {
      "id": 44,
      "content": "<|reserved_special_token_39|>",
      "single_word": false,
      "lstrip": false,
      "rstrip": false,
      "normalized": false,
      "special": true
    },
    {
      "id": 45,
      "content": "<|reserved_special_token_40|>",
      "single_word": false,
      "lstrip": false,
      "rstrip": false,
      "normalized": false,
      "special": true
    },
    {
      "id": 46,
      "content": "<|reserved_special_token_41|>",
      "single_word": false,
      "lstrip": false,
      "rstrip": false,
      "normalized": false,
      "special": true
    },
    {
      "id": 47,
      "content": "<|reserved_special_token_42|>",
      "single_word": false,
      "lstrip": false,
      "rstrip": false,
      "normalized": false,
      "special": true
    },
    {
      "id": 48,
      "content": "<|reserved_special_token_43|>",
      "single_word": false,
      "lstrip": false,
      "rstrip": false,
      "normalized": false,
      "special": true
    },
    {
      "id": 49,
      "content": "<|reserved_special_token_44|>",
      "single_word": false,
      "lstrip": false,
      "rstrip": false,
      "normalized": false,
      "special": true
    },
    {
      "id": 50,
      "content": "<|reserved_special_token_45|>",
      "single_word": false,
      "lstrip": false,
      "rstrip": false,
      "normalized": false,
      "special": true
    },
    {
      "id": 51,
      "content": "<|reserved_special_token_46|>",
      "single_word": false,
      "lstrip": false,
      "rstrip": false,
      "normalized": false,
      "special": true
    },
    {
      "id": 52,
      "content": "<|reserved_special_token_47|>",
      "single_word": false,
      "lstrip": false,
      "rstrip": false,
      "normalized": false,
      "special": true
    },
    {
      "id": 53,
      "content": "<|reserved_special_token_48|>",
      "single_word": false,
      "lstrip": false,
      "rstrip": false,
      "normalized": false,
      "special": true
    },
    {
      "id": 54,
      "content": "<|reserved_special_token_49|>",
      "single_word": false,
      "lstrip": false,
      "rstrip": false,
      "normalized": false,
      "special": true
    },
    {
      "id": 55,
      "content": "<|reserved_special_token_50|>",
      "single_word": false,
      "lstrip": false,
      "rstrip": false,
      "normalized": false,
      "special": true
    },
    {
      "id": 56,
      "content": "<|reserved_special_token_51|>",
      "single_word": false,
      "lstrip": false,
      "rstrip": false,
      "normalized": false,
      "special": true
    },
    {
      "id": 57,
      "content": "<|reserved_special_token_52|>",
      "single_word": false,
      "lstrip": false,
      "rstrip": false,
      "normalized": false,
      "special": true
    },
    {
      "id": 58,
      "content": "<|reserved_special_token_53|>",
      "single_word": false,
      "lstrip": false,
      "rstrip": false,
      "normalized": false,
      "special": true
    },
    {
      "id": 59,
      "content": "<|reserved_special_token_54|>",
      "single_word": false,
      "lstrip": false,
      "rstrip": false,
      "normalized": false,
      "special": true
    },
    {
      "id": 60,
      "content": "<|reserved_special_token_55|>",
      "single_word": false,
      "lstrip": false,
      "rstrip": false,
      "normalized": false,
      "special": true
    },
    {
      "id": 61,
      "content": "<|reserved_special_token_56|>",
      "single_word": false,
      "lstrip": false,
      "rstrip": false,
      "normalized": false,
      "special": true
    },
    {
      "id": 62,
      "content": "<|reserved_special_token_57|>",
      "single_word": false,
      "lstrip": false,
      "rstrip": false,
      "normalized": false,
      "special": true
    },
    {
      "id": 63,
      "content": "<|reserved_special_token_58|>",
      "single_word": false,
      "lstrip": false,
      "rstrip": false,
      "normalized": false,
      "special": true
    },
    {
      "id": 64,
      "content": "<|reserved_special_token_59|>",
      "single_word": false,
      "lstrip": false,
      "rstrip": false,
      "normalized": false,
      "special": true
    },
    {
      "id": 65,
      "content": "<|reserved_special_token_60|>",
      "single_word": false,
      "lstrip": false,
      "rstrip": false,
      "normalized": false,
      "special": true
    },
    {
      "id": 66,
      "content": "<|reserved_special_token_61|>",
      "single_word": false,
      "lstrip": false,
      "rstrip": false,
      "normalized": false,
      "special": true
    },
    {
      "id": 67,
      "content": "<|reserved_special_token_62|>",
      "single_word": false,
      "lstrip": false,
      "rstrip": false,
      "normalized": false,
      "special": true
    },
    {
      "id": 68,
      "content": "<|reserved_special_token_63|>",
      "single_word": false,
      "lstrip": false,
      "rstrip": false,
      "normalized": false,
      "special": true
    },
    {
      "id": 69,
      "content": "<|reserved_special_token_64|>",
      "single_word": false,
      "lstrip": false,
      "rstrip": false,
      "normalized": false,
      "special": true
    },
    {
      "id": 70,
      "content": "<|reserved_special_token_65|>",
      "single_word": false,
      "lstrip": false,
      "rstrip": false,
      "normalized": false,
      "special": true
    },
    {
      "id": 71,
      "content": "<|reserved_special_token_66|>",
      "single_word": false,
      "lstrip": false,
      "rstrip": false,
      "normalized": false,
      "special": true
    },
    {
      "id": 72,
      "content": "<|reserved_special_token_67|>",
      "single_word": false,
      "lstrip": false,
      "rstrip": false,
      "normalized": false,
      "special": true
    },
    {
      "id": 73,
      "content": "<|reserved_special_token_68|>",
      "single_word": false,
      "lstrip": false,
      "rstrip": false,
      "normalized": false,
      "special": true
    },
    {
      "id": 74,
      "content": "<|reserved_special_token_69|>",
      "single_word": false,
      "lstrip": false,
      "rstrip": false,
      "normalized": false,
      "special": true
    },
    {
      "id": 75,
      "content": "<|reserved_special_token_70|>",
      "single_word": false,
      "lstrip": false,
      "rstrip": false,
      "normalized": false,
      "special": true
    },
    {
      "id": 76,
      "content": "<|reserved_special_token_71|>",
      "single_word": false,
      "lstrip": false,
      "rstrip": false,
      "normalized": false,
      "special": true
    },
    {
      "id": 77,
      "content": "<|reserved_special_token_72|>",
      "single_word": false,
      "lstrip": false,
      "rstrip": false,
      "normalized": false,
      "special": true
    },
    {
      "id": 78,
      "content": "<|reserved_special_token_73|>",
      "single_word": false,
      "lstrip": false,
      "rstrip": false,
      "normalized": false,
      "special": true
    },
    {
      "id": 79,
      "content": "<|reserved_special_token_74|>",
      "single_word": false,
      "lstrip": false,
      "rstrip": false,
      "normalized": false,
      "special": true
    },
    {
      "id": 80,
      "content": "<|reserved_special_token_75|>",
      "single_word": false,
      "lstrip": false,
      "rstrip": false,
      "normalized": false,
      "special": true
    },
    {
      "id": 81,
      "content": "<|reserved_special_token_76|>",
      "single_word": false,
      "lstrip": false,
      "rstrip": false,
      "normalized": false,
      "special": true
    },
    {
      "id": 82,
      "content": "<|reserved_special_token_77|>",
      "single_word": false,
      "lstrip": false,
      "rstrip": false,
      "normalized": false,
      "special": true
    },
    {
      "id": 83,
      "content": "<|reserved_special_token_78|>",
      "single_word": false,
      "lstrip": false,
      "rstrip": false,
      "normalized": false,
      "special": true
    },
    {
      "id": 84,
      "content": "<|reserved_special_token_79|>",
      "single_word": false,
      "lstrip": false,
      "rstrip": false,
      "normalized": false,
      "special": true
    },
    {
      "id": 85,
      "content": "<|reserved_special_token_80|>",
      "single_word": false,
      "lstrip": false,
      "rstrip": false,
      "normalized": false,
      "special": true
    },
    {
      "id": 86,
      "content": "<|reserved_special_token_81|>",
      "single_word": false,
      "lstrip": false,
      "rstrip": false,
      "normalized": false,
      "special": true
    },
    {
      "id": 87,
      "content": "<|reserved_special_token_82|>",
      "single_word": false,
      "lstrip": false,
      "rstrip": false,
      "normalized": false,
      "special": true
    },
    {
      "id": 88,
      "content": "<|reserved_special_token_83|>",
      "single_word": false,
      "lstrip": false,
      "rstrip": false,
      "normalized": false,
      "special": true
    },
    {
      "id": 89,
      "content": "<|reserved_special_token_84|>",
      "single_word": false,
      "lstrip": false,
      "rstrip": false,
      "normalized": false,
      "special": true
    },
    {
      "id": 90,
      "content": "<|reserved_special_token_85|>",
      "single_word": false,
      "lstrip": false,
      "rstrip": false,
      "normalized": false,
      "special": true
    },
    {
      "id": 91,
      "content": "<|reserved_special_token_86|>",
      "single_word": false,
      "lstrip": false,
      "rstrip": false,
      "normalized": false,
      "special": true
    },
    {
      "id": 92,
      "content": "<|reserved_special_token_87|>",
      "single_word": false,
      "lstrip": false,
      "rstrip": false,
      "normalized": false,
      "special": true
    },
    {
      "id": 93,
      "content": "<|reserved_special_token_88|>",
      "single_word": false,
      "lstrip": false,
      "rstrip": false,
      "normalized": false,
      "special": true
    },
    {
      "id": 94,
      "content": "<|reserved_special_token_89|>",
      "single_word": false,
      "lstrip": false,
      "rstrip": false,
      "normalized": false,
      "special": true
    },
    {
      "id": 95,
      "content": "<|reserved_special_token_90|>",
      "single_word": false,
      "lstrip": false,
      "rstrip": false,
      "normalized": false,
      "special": true
    },
    {
      "id": 96,
      "content": "<|reserved_special_token_91|>",
      "single_word": false,
      "lstrip": false,
      "rstrip": false,
      "normalized": false,
      "special": true
    },
    {
      "id": 97,
      "content": "<|reserved_special_token_92|>",
      "single_word": false,
      "lstrip": false,
      "rstrip": false,
      "normalized": false,
      "special": true
    },
    {
      "id": 98,
      "content": "<|reserved_special_token_93|>",
      "single_word": false,
      "lstrip": false,
      "rstrip": false,
      "normalized": false,
      "special": true
    },
    {
      "id": 99,
      "content": "<|reserved_special_token_94|>",
      "single_word": false,
      "lstrip": false,
      "rstrip": false,
      "normalized": false,
      "special": true
    },
    {
      "id": 100,
      "content": "<|reserved_special_token_95|>",
      "single_word": false,
      "lstrip": false,
      "rstrip": false,
      "normalized": false,
      "special": true
    },
    {
      "id": 101,
      "content": "<|reserved_special_token_96|>",
      "single_word": false,
      "lstrip": false,
      "rstrip": false,
      "normalized": false,
      "special": true
    },
    {
      "id": 102,
      "content": "<|reserved_special_token_97|>",
      "single_word": false,
      "lstrip": false,
      "rstrip": false,
      "normalized": false,
      "special": true
    },
    {
      "id": 103,
      "content": "<|reserved_special_token_98|>",
      "single_word": false,
      "lstrip": false,
      "rstrip": false,
      "normalized": false,
      "special": true
    },
    {
      "id": 104,
      "content": "<|reserved_special_token_99|>",
      "single_word": false,
      "lstrip": false,
      "rstrip": false,
      "normalized": false,
      "special": true
    },
    {
      "id": 105,
      "content": "<|reserved_special_token_100|>",
      "single_word": false,
      "lstrip": false,
      "rstrip": false,
      "normalized": false,
      "special": true
    },
    {
      "id": 106,
      "content": "<|reserved_special_token_101|>",
      "single_word": false,
      "lstrip": false,
      "rstrip": false,
      "normalized": false,
      "special": true
    },
    {
      "id": 107,
      "content": "<|reserved_special_token_102|>",
      "single_word": false,
      "lstrip": false,
      "rstrip": false,
      "normalized": false,
      "special": true
    },
    {
      "id": 108,
      "content": "<|reserved_special_token_103|>",
      "single_word": false,
      "lstrip": false,
      "rstrip": false,
      "normalized": false,
      "special": true
    },
    {
      "id": 109,
      "content": "<|reserved_special_token_104|>",
      "single_word": false,
      "lstrip": false,
      "rstrip": false,
      "normalized": false,
      "special": true
    },
    {
      "id": 110,
      "content": "<|reserved_special_token_105|>",
      "single_word": false,
      "lstrip": false,
      "rstrip": false,
      "normalized": false,
      "special": true
    },
    {
      "id": 111,
      "content": "<|reserved_special_token_106|>",
      "single_word": false,
      "lstrip": false,
      "rstrip": false,
      "normalized": false,
      "special": true
    },
    {
      "id": 112,
      "content": "<|reserved_special_token_107|>",
      "single_word": false,
      "lstrip": false,
      "rstrip": false,
      "normalized": false,
      "special": true
    },
    {
      "id": 113,
      "content": "<|reserved_special_token_108|>",
      "single_word": false,
      "lstrip": false,
      "rstrip": false,
      "normalized": false,
      "special": true
    },
    {
      "id": 114,
      "content": "<|reserved_special_token_109|>",
      "single_word": false,
      "lstrip": false,
      "rstrip": false,
      "normalized": false,
      "special": true
    },
    {
      "id": 115,
      "content": "<|reserved_special_token_110|>",
      "single_word": false,
      "lstrip": false,
      "rstrip": false,
      "normalized": false,
      "special": true
    },
    {
      "id": 116,
      "content": "<|reserved_special_token_111|>",
      "single_word": false,
      "lstrip": false,
      "rstrip": false,
      "normalized": false,
      "special": true
    },
    {
      "id": 117,
      "content": "<|reserved_special_token_112|>",
      "single_word": false,
      "lstrip": false,
      "rstrip": false,
      "normalized": false,
      "special": true
    },
    {
      "id": 118,
      "content": "<|reserved_special_token_113|>",
      "single_word": false,
      "lstrip": false,
      "rstrip": false,
      "normalized": false,
      "special": true
    },
    {
      "id": 119,
      "content": "<|reserved_special_token_114|>",
      "single_word": false,
      "lstrip": false,
      "rstrip": false,
      "normalized": false,
      "special": true
    },
    {
      "id": 120,
      "content": "<|reserved_special_token_115|>",
      "single_word": false,
      "lstrip": false,
      "rstrip": false,
      "normalized": false,
      "special": true
    },
    {
      "id": 121,
      "content": "<|reserved_special_token_116|>",
      "single_word": false,
      "lstrip": false,
      "rstrip": false,
      "normalized": false,
      "special": true
    },
    {
      "id": 122,
      "content": "<|reserved_special_token_117|>",
      "single_word": false,
      "lstrip": false,
      "rstrip": false,
      "normalized": false,
      "special": true
    },
    {
      "id": 123,
      "content": "<|reserved_special_token_118|>",
      "single_word": false,
      "lstrip": false,
      "rstrip": false,
      "normalized": false,
      "special": true
    },
    {
      "id": 124,
      "content": "<|reserved_special_token_119|>",
      "single_word": false,
      "lstrip": false,
      "rstrip": false,
      "normalized": false,
      "special": true
    },
    {
      "id": 125,
      "content": "<|reserved_special_token_120|>",
      "single_word": false,
      "lstrip": false,
      "rstrip": false,
      "normalized": false,
      "special": true
    },
    {
      "id": 126,
      "content": "<|reserved_special_token_121|>",
      "single_word": false,
      "lstrip": false,
      "rstrip": false,
      "normalized": false,
      "special": true
    },
    {
      "id": 127,
      "content": "<|reserved_special_token_122|>",
      "single_word": false,
      "lstrip": false,
      "rstrip": false,
      "normalized": false,
      "special": true
    },
    {
      "id": 128,
      "content": "<|reserved_special_token_123|>",
      "single_word": false,
      "lstrip": false,
      "rstrip": false,
      "normalized": false,
      "special": true
    },
    {
      "id": 129,
      "content": "<|reserved_special_token_124|>",
      "single_word": false,
      "lstrip": false,
      "rstrip": false,
      "normalized": false,
      "special": true
    },
    {
      "id": 130,
      "content": "<|reserved_special_token_125|>",
      "single_word": false,
      "lstrip": false,
      "rstrip": false,
      "normalized": false,
      "special": true
    },
    {
      "id": 131,
      "content": "<|reserved_special_token_126|>",
      "single_word": false,
      "lstrip": false,
      "rstrip": false,
      "normalized": false,
      "special": true
    },
    {
      "id": 132,
      "content": "<|reserved_special_token_127|>",
      "single_word": false,
      "lstrip": false,
      "rstrip": false,
      "normalized": false,
      "special": true
    },
    {
      "id": 133,
      "content": "<|reserved_special_token_128|>",
      "single_word": false,
      "lstrip": false,
      "rstrip": false,
      "normalized": false,
      "special": true
    },
    {
      "id": 134,
      "content": "<|reserved_special_token_129|>",
      "single_word": false,
      "lstrip": false,
      "rstrip": false,
      "normalized": false,
      "special": true
    },
    {
      "id": 135,
      "content": "<|reserved_special_token_130|>",
      "single_word": false,
      "lstrip": false,
      "rstrip": false,
      "normalized": false,
      "special": true
    },
    {
      "id": 136,
      "content": "<|reserved_special_token_131|>",
      "single_word": false,
      "lstrip": false,
      "rstrip": false,
      "normalized": false,
      "special": true
    },
    {
      "id": 137,
      "content": "<|reserved_special_token_132|>",
      "single_word": false,
      "lstrip": false,
      "rstrip": false,
      "normalized": false,
      "special": true
    },
    {
      "id": 138,
      "content": "<|reserved_special_token_133|>",
      "single_word": false,
      "lstrip": false,
      "rstrip": false,
      "normalized": false,
      "special": true
    },
    {
      "id": 139,
      "content": "<|reserved_special_token_134|>",
      "single_word": false,
      "lstrip": false,
      "rstrip": false,
      "normalized": false,
      "special": true
    },
    {
      "id": 140,
      "content": "<|reserved_special_token_135|>",
      "single_word": false,
      "lstrip": false,
      "rstrip": false,
      "normalized": false,
      "special": true
    },
    {
      "id": 141,
      "content": "<|reserved_special_token_136|>",
      "single_word": false,
      "lstrip": false,
      "rstrip": false,
      "normalized": false,
      "special": true
    },
    {
      "id": 142,
      "content": "<|reserved_special_token_137|>",
      "single_word": false,
      "lstrip": false,
      "rstrip": false,
      "normalized": false,
      "special": true
    },
    {
      "id": 143,
      "content": "<|reserved_special_token_138|>",
      "single_word": false,
      "lstrip": false,
      "rstrip": false,
      "normalized": false,
      "special": true
    },
    {
      "id": 144,
      "content": "<|reserved_special_token_139|>",
      "single_word": false,
      "lstrip": false,
      "rstrip": false,
      "normalized": false,
      "special": true
    },
    {
      "id": 145,
      "content": "<|reserved_special_token_140|>",
      "single_word": false,
      "lstrip": false,
      "rstrip": false,
      "normalized": false,
      "special": true
    },
    {
      "id": 146,
      "content": "<|reserved_special_token_141|>",
      "single_word": false,
      "lstrip": false,
      "rstrip": false,
      "normalized": false,
      "special": true
    },
    {
      "id": 147,
      "content": "<|reserved_special_token_142|>",
      "single_word": false,
      "lstrip": false,
      "rstrip": false,
      "normalized": false,
      "special": true
    },
    {
      "id": 148,
      "content": "<|reserved_special_token_143|>",
      "single_word": false,
      "lstrip": false,
      "rstrip": false,
      "normalized": false,
      "special": true
    },
    {
      "id": 149,
      "content": "<|reserved_special_token_144|>",
      "single_word": false,
      "lstrip": false,
      "rstrip": false,
      "normalized": false,
      "special": true
    },
    {
      "id": 150,
      "content": "<|reserved_special_token_145|>",
      "single_word": false,
      "lstrip": false,
      "rstrip": false,
      "normalized": false,
      "special": true
    },
    {
      "id": 151,
      "content": "<|reserved_special_token_146|>",
      "single_word": false,
      "lstrip": false,
      "rstrip": false,
      "normalized": false,
      "special": true
    },
    {
      "id": 152,
      "content": "<|reserved_special_token_147|>",
      "single_word": false,
      "lstrip": false,
      "rstrip": false,
      "normalized": false,
      "special": true
    },
    {
      "id": 153,
      "content": "<|reserved_special_token_148|>",
      "single_word": false,
      "lstrip": false,
      "rstrip": false,
      "normalized": false,
      "special": true
    },
    {
      "id": 154,
      "content": "<|reserved_special_token_149|>",
      "single_word": false,
      "lstrip": false,
      "rstrip": false,
      "normalized": false,
      "special": true
    },
    {
      "id": 155,
      "content": "<|reserved_special_token_150|>",
      "single_word": false,
      "lstrip": false,
      "rstrip": false,
      "normalized": false,
      "special": true
    },
    {
      "id": 156,
      "content": "<|reserved_special_token_151|>",
      "single_word": false,
      "lstrip": false,
      "rstrip": false,
      "normalized": false,
      "special": true
    },
    {
      "id": 157,
      "content": "<|reserved_special_token_152|>",
      "single_word": false,
      "lstrip": false,
      "rstrip": false,
      "normalized": false,
      "special": true
    },
    {
      "id": 158,
      "content": "<|reserved_special_token_153|>",
      "single_word": false,
      "lstrip": false,
      "rstrip": false,
      "normalized": false,
      "special": true
    },
    {
      "id": 159,
      "content": "<|reserved_special_token_154|>",
      "single_word": false,
      "lstrip": false,
      "rstrip": false,
      "normalized": false,
      "special": true
    },
    {
      "id": 160,
      "content": "<|reserved_special_token_155|>",
      "single_word": false,
      "lstrip": false,
      "rstrip": false,
      "normalized": false,
      "special": true
    },
    {
      "id": 161,
      "content": "<|reserved_special_token_156|>",
      "single_word": false,
      "lstrip": false,
      "rstrip": false,
      "normalized": false,
      "special": true
    },
    {
      "id": 162,
      "content": "<|reserved_special_token_157|>",
      "single_word": false,
      "lstrip": false,
      "rstrip": false,
      "normalized": false,
      "special": true
    },
    {
      "id": 163,
      "content": "<|reserved_special_token_158|>",
      "single_word": false,
      "lstrip": false,
      "rstrip": false,
      "normalized": false,
      "special": true
    },
    {
      "id": 164,
      "content": "<|reserved_special_token_159|>",
      "single_word": false,
      "lstrip": false,
      "rstrip": false,
      "normalized": false,
      "special": true
    },
    {
      "id": 165,
      "content": "<|reserved_special_token_160|>",
      "single_word": false,
      "lstrip": false,
      "rstrip": false,
      "normalized": false,
      "special": true
    },
    {
      "id": 166,
      "content": "<|reserved_special_token_161|>",
      "single_word": false,
      "lstrip": false,
      "rstrip": false,
      "normalized": false,
      "special": true
    },
    {
      "id": 167,
      "content": "<|reserved_special_token_162|>",
      "single_word": false,
      "lstrip": false,
      "rstrip": false,
      "normalized": false,
      "special": true
    },
    {
      "id": 168,
      "content": "<|reserved_special_token_163|>",
      "single_word": false,
      "lstrip": false,
      "rstrip": false,
      "normalized": false,
      "special": true
    },
    {
      "id": 169,
      "content": "<|reserved_special_token_164|>",
      "single_word": false,
      "lstrip": false,
      "rstrip": false,
      "normalized": false,
      "special": true
    },
    {
      "id": 170,
      "content": "<|reserved_special_token_165|>",
      "single_word": false,
      "lstrip": false,
      "rstrip": false,
      "normalized": false,
      "special": true
    },
    {
      "id": 171,
      "content": "<|reserved_special_token_166|>",
      "single_word": false,
      "lstrip": false,
      "rstrip": false,
      "normalized": false,
      "special": true
    },
    {
      "id": 172,
      "content": "<|reserved_special_token_167|>",
      "single_word": false,
      "lstrip": false,
      "rstrip": false,
      "normalized": false,
      "special": true
    },
    {
      "id": 173,
      "content": "<|reserved_special_token_168|>",
      "single_word": false,
      "lstrip": false,
      "rstrip": false,
      "normalized": false,
      "special": true
    },
    {
      "id": 174,
      "content": "<|reserved_special_token_169|>",
      "single_word": false,
      "lstrip": false,
      "rstrip": false,
      "normalized": false,
      "special": true
    },
    {
      "id": 175,
      "content": "<|reserved_special_token_170|>",
      "single_word": false,
      "lstrip": false,
      "rstrip": false,
      "normalized": false,
      "special": true
    },
    {
      "id": 176,
      "content": "<|reserved_special_token_171|>",
      "single_word": false,
      "lstrip": false,
      "rstrip": false,
      "normalized": false,
      "special": true
    },
    {
      "id": 177,
      "content": "<|reserved_special_token_172|>",
      "single_word": false,
      "lstrip": false,
      "rstrip": false,
      "normalized": false,
      "special": true
    },
    {
      "id": 178,
      "content": "<|reserved_special_token_173|>",
      "single_word": false,
      "lstrip": false,
      "rstrip": false,
      "normalized": false,
      "special": true
    },
    {
      "id": 179,
      "content": "<|reserved_special_token_174|>",
      "single_word": false,
      "lstrip": false,
      "rstrip": false,
      "normalized": false,
      "special": true
    },
    {
      "id": 180,
      "content": "<|reserved_special_token_175|>",
      "single_word": false,
      "lstrip": false,
      "rstrip": false,
      "normalized": false,
      "special": true
    },
    {
      "id": 181,
      "content": "<|reserved_special_token_176|>",
      "single_word": false,
      "lstrip": false,
      "rstrip": false,
      "normalized": false,
      "special": true
    },
    {
      "id": 182,
      "content": "<|reserved_special_token_177|>",
      "single_word": false,
      "lstrip": false,
      "rstrip": false,
      "normalized": false,
      "special": true
    },
    {
      "id": 183,
      "content": "<|reserved_special_token_178|>",
      "single_word": false,
      "lstrip": false,
      "rstrip": false,
      "normalized": false,
      "special": true
    },
    {
      "id": 184,
      "content": "<|reserved_special_token_179|>",
      "single_word": false,
      "lstrip": false,
      "rstrip": false,
      "normalized": false,
      "special": true
    },
    {
      "id": 185,
      "content": "<|reserved_special_token_180|>",
      "single_word": false,
      "lstrip": false,
      "rstrip": false,
      "normalized": false,
      "special": true
    },
    {
      "id": 186,
      "content": "<|reserved_special_token_181|>",
      "single_word": false,
      "lstrip": false,
      "rstrip": false,
      "normalized": false,
      "special": true
    },
    {
      "id": 187,
      "content": "<|reserved_special_token_182|>",
      "single_word": false,
      "lstrip": false,
      "rstrip": false,
      "normalized": false,
      "special": true
    },
    {
      "id": 188,
      "content": "<|reserved_special_token_183|>",
      "single_word": false,
      "lstrip": false,
      "rstrip": false,
      "normalized": false,
      "special": true
    },
    {
      "id": 189,
      "content": "<|reserved_special_token_184|>",
      "single_word": false,
      "lstrip": false,
      "rstrip": false,
      "normalized": false,
      "special": true
    },
    {
      "id": 190,
      "content": "<|reserved_special_token_185|>",
      "single_word": false,
      "lstrip": false,
      "rstrip": false,
      "normalized": false,
      "special": true
    },
    {
      "id": 191,
      "content": "<|reserved_special_token_186|>",
      "single_word": false,
      "lstrip": false,
      "rstrip": false,
      "normalized": false,
      "special": true
    },
    {
      "id": 192,
      "content": "<|reserved_special_token_187|>",
      "single_word": false,
      "lstrip": false,
      "rstrip": false,
      "normalized": false,
      "special": true
    },
    {
      "id": 193,
      "content": "<|reserved_special_token_188|>",
      "single_word": false,
      "lstrip": false,
      "rstrip": false,
      "normalized": false,
      "special": true
    },
    {
      "id": 194,
      "content": "<|reserved_special_token_189|>",
      "single_word": false,
      "lstrip": false,
      "rstrip": false,
      "normalized": false,
      "special": true
    },
    {
      "id": 195,
      "content": "<|reserved_special_token_190|>",
      "single_word": false,
      "lstrip": false,
      "rstrip": false,
      "normalized": false,
      "special": true
    },
    {
      "id": 196,
      "content": "<|reserved_special_token_191|>",
      "single_word": false,
      "lstrip": false,
      "rstrip": false,
      "normalized": false,
      "special": true
    },
    {
      "id": 197,
      "content": "<|reserved_special_token_192|>",
      "single_word": false,
      "lstrip": false,
      "rstrip": false,
      "normalized": false,
      "special": true
    },
    {
      "id": 198,
      "content": "<|reserved_special_token_193|>",
      "single_word": false,
      "lstrip": false,
      "rstrip": false,
      "normalized": false,
      "special": true
    },
    {
      "id": 199,
      "content": "<|reserved_special_token_194|>",
      "single_word": false,
      "lstrip": false,
      "rstrip": false,
      "normalized": false,
      "special": true
    },
    {
      "id": 200,
      "content": "<|reserved_special_token_195|>",
      "single_word": false,
      "lstrip": false,
      "rstrip": false,
      "normalized": false,
      "special": true
    },
    {
      "id": 201,
      "content": "<|reserved_special_token_196|>",
      "single_word": false,
      "lstrip": false,
      "rstrip": false,
      "normalized": false,
      "special": true
    },
    {
      "id": 202,
      "content": "<|reserved_special_token_197|>",
      "single_word": false,
      "lstrip": false,
      "rstrip": false,
      "normalized": false,
      "special": true
    },
    {
      "id": 203,
      "content": "<|reserved_special_token_198|>",
      "single_word": false,
      "lstrip": false,
      "rstrip": false,
      "normalized": false,
      "special": true
    },
    {
      "id": 204,
      "content": "<|reserved_special_token_199|>",
      "single_word": false,
      "lstrip": false,
      "rstrip": false,
      "normalized": false,
      "special": true
    },
    {
      "id": 205,
      "content": "<|reserved_special_token_200|>",
      "single_word": false,
      "lstrip": false,
      "rstrip": false,
      "normalized": false,
      "special": true
    },
    {
      "id": 206,
      "content": "<|reserved_special_token_201|>",
      "single_word": false,
      "lstrip": false,
      "rstrip": false,
      "normalized": false,
      "special": true
    },
    {
      "id": 207,
      "content": "<|reserved_special_token_202|>",
      "single_word": false,
      "lstrip": false,
      "rstrip": false,
      "normalized": false,
      "special": true
    },
    {
      "id": 208,
      "content": "<|reserved_special_token_203|>",
      "single_word": false,
      "lstrip": false,
      "rstrip": false,
      "normalized": false,
      "special": true
    },
    {
      "id": 209,
      "content": "<|reserved_special_token_204|>",
      "single_word": false,
      "lstrip": false,
      "rstrip": false,
      "normalized": false,
      "special": true
    },
    {
      "id": 210,
      "content": "<|reserved_special_token_205|>",
      "single_word": false,
      "lstrip": false,
      "rstrip": false,
      "normalized": false,
      "special": true
    },
    {
      "id": 211,
      "content": "<|reserved_special_token_206|>",
      "single_word": false,
      "lstrip": false,
      "rstrip": false,
      "normalized": false,
      "special": true
    },
    {
      "id": 212,
      "content": "<|reserved_special_token_207|>",
      "single_word": false,
      "lstrip": false,
      "rstrip": false,
      "normalized": false,
      "special": true
    },
    {
      "id": 213,
      "content": "<|reserved_special_token_208|>",
      "single_word": false,
      "lstrip": false,
      "rstrip": false,
      "normalized": false,
      "special": true
    },
    {
      "id": 214,
      "content": "<|reserved_special_token_209|>",
      "single_word": false,
      "lstrip": false,
      "rstrip": false,
      "normalized": false,
      "special": true
    },
    {
      "id": 215,
      "content": "<|reserved_special_token_210|>",
      "single_word": false,
      "lstrip": false,
      "rstrip": false,
      "normalized": false,
      "special": true
    },
    {
      "id": 216,
      "content": "<|reserved_special_token_211|>",
      "single_word": false,
      "lstrip": false,
      "rstrip": false,
      "normalized": false,
      "special": true
    },
    {
      "id": 217,
      "content": "<|reserved_special_token_212|>",
      "single_word": false,
      "lstrip": false,
      "rstrip": false,
      "normalized": false,
      "special": true
    },
    {
      "id": 218,
      "content": "<|reserved_special_token_213|>",
      "single_word": false,
      "lstrip": false,
      "rstrip": false,
      "normalized": false,
      "special": true
    },
    {
      "id": 219,
      "content": "<|reserved_special_token_214|>",
      "single_word": false,
      "lstrip": false,
      "rstrip": false,
      "normalized": false,
      "special": true
    },
    {
      "id": 220,
      "content": "<|reserved_special_token_215|>",
      "single_word": false,
      "lstrip": false,
      "rstrip": false,
      "normalized": false,
      "special": true
    },
    {
      "id": 221,
      "content": "<|reserved_special_token_216|>",
      "single_word": false,
      "lstrip": false,
      "rstrip": false,
      "normalized": false,
      "special": true
    },
    {
      "id": 222,
      "content": "<|reserved_special_token_217|>",
      "single_word": false,
      "lstrip": false,
      "rstrip": false,
      "normalized": false,
      "special": true
    },
    {
      "id": 223,
      "content": "<|reserved_special_token_218|>",
      "single_word": false,
      "lstrip": false,
      "rstrip": false,
      "normalized": false,
      "special": true
    },
    {
      "id": 224,
      "content": "<|reserved_special_token_219|>",
      "single_word": false,
      "lstrip": false,
      "rstrip": false,
      "normalized": false,
      "special": true
    },
    {
      "id": 225,
      "content": "<|reserved_special_token_220|>",
      "single_word": false,
      "lstrip": false,
      "rstrip": false,
      "normalized": false,
      "special": true
    },
    {
      "id": 226,
      "content": "<|reserved_special_token_221|>",
      "single_word": false,
      "lstrip": false,
      "rstrip": false,
      "normalized": false,
      "special": true
    },
    {
      "id": 227,
      "content": "<|reserved_special_token_222|>",
      "single_word": false,
      "lstrip": false,
      "rstrip": false,
      "normalized": false,
      "special": true
    },
    {
      "id": 228,
      "content": "<|reserved_special_token_223|>",
      "single_word": false,
      "lstrip": false,
      "rstrip": false,
      "normalized": false,
      "special": true
    },
    {
      "id": 229,
      "content": "<|reserved_special_token_224|>",
      "single_word": false,
      "lstrip": false,
      "rstrip": false,
      "normalized": false,
      "special": true
    },
    {
      "id": 230,
      "content": "<|reserved_special_token_225|>",
      "single_word": false,
      "lstrip": false,
      "rstrip": false,
      "normalized": false,
      "special": true
    },
    {
      "id": 231,
      "content": "<|reserved_special_token_226|>",
      "single_word": false,
      "lstrip": false,
      "rstrip": false,
      "normalized": false,
      "special": true
    },
    {
      "id": 232,
      "content": "<|reserved_special_token_227|>",
      "single_word": false,
      "lstrip": false,
      "rstrip": false,
      "normalized": false,
      "special": true
    },
    {
      "id": 233,
      "content": "<|reserved_special_token_228|>",
      "single_word": false,
      "lstrip": false,
      "rstrip": false,
      "normalized": false,
      "special": true
    },
    {
      "id": 234,
      "content": "<|reserved_special_token_229|>",
      "single_word": false,
      "lstrip": false,
      "rstrip": false,
      "normalized": false,
      "special": true
    },
    {
      "id": 235,
      "content": "<|reserved_special_token_230|>",
      "single_word": false,
      "lstrip": false,
      "rstrip": false,
      "normalized": false,
      "special": true
    },
    {
      "id": 236,
      "content": "<|reserved_special_token_231|>",
      "single_word": false,
      "lstrip": false,
      "rstrip": false,
      "normalized": false,
      "special": true
    },
    {
      "id": 237,
      "content": "<|reserved_special_token_232|>",
      "single_word": false,
      "lstrip": false,
      "rstrip": false,
      "normalized": false,
      "special": true
    },
    {
      "id": 238,
      "content": "<|reserved_special_token_233|>",
      "single_word": false,
      "lstrip": false,
      "rstrip": false,
      "normalized": false,
      "special": true
    },
    {
      "id": 239,
      "content": "<|reserved_special_token_234|>",
      "single_word": false,
      "lstrip": false,
      "rstrip": false,
      "normalized": false,
      "special": true
    },
    {
      "id": 240,
      "content": "<|reserved_special_token_235|>",
      "single_word": false,
      "lstrip": false,
      "rstrip": false,
      "normalized": false,
      "special": true
    },
    {
      "id": 241,
      "content": "<|reserved_special_token_236|>",
      "single_word": false,
      "lstrip": false,
      "rstrip": false,
      "normalized": false,
      "special": true
    },
    {
      "id": 242,
      "content": "<|reserved_special_token_237|>",
      "single_word": false,
      "lstrip": false,
      "rstrip": false,
      "normalized": false,
      "special": true
    },
    {
      "id": 243,
      "content": "<|reserved_special_token_238|>",
      "single_word": false,
      "lstrip": false,
      "rstrip": false,
      "normalized": false,
      "special": true
    },
    {
      "id": 244,
      "content": "<|reserved_special_token_239|>",
      "single_word": false,
      "lstrip": false,
      "rstrip": false,
      "normalized": false,
      "special": true
    },
    {
      "id": 245,
      "content": "<|reserved_special_token_240|>",
      "single_word": false,
      "lstrip": false,
      "rstrip": false,
      "normalized": false,
      "special": true
    },
    {
      "id": 246,
      "content": "<|reserved_special_token_241|>",
      "single_word": false,
      "lstrip": false,
      "rstrip": false,
      "normalized": false,
      "special": true
    },
    {
      "id": 247,
      "content": "<|reserved_special_token_242|>",
      "single_word": false,
      "lstrip": false,
      "rstrip": false,
      "normalized": false,
      "special": true
    },
    {
      "id": 248,
      "content": "<|reserved_special_token_243|>",
      "single_word": false,
      "lstrip": false,
      "rstrip": false,
      "normalized": false,
      "special": true
    },
    {
      "id": 249,
      "content": "<|reserved_special_token_244|>",
      "single_word": false,
      "lstrip": false,
      "rstrip": false,
      "normalized": false,
      "special": true
    },
    {
      "id": 250,
      "content": "<|reserved_special_token_245|>",
      "single_word": false,
      "lstrip": false,
      "rstrip": false,
      "normalized": false,
      "special": true
    },
    {
      "id": 251,
      "content": "<|reserved_special_token_246|>",
      "single_word": false,
      "lstrip": false,
      "rstrip": false,
      "normalized": false,
      "special": true
    },
    {
      "id": 252,
      "content": "<|reserved_special_token_247|>",
      "single_word": false,
      "lstrip": false,
      "rstrip": false,
      "normalized": false,
      "special": true
    },
    {
      "id": 253,
      "content": "<|reserved_special_token_248|>",
      "single_word": false,
      "lstrip": false,
      "rstrip": false,
      "normalized": false,
      "special": true
    },
    {
      "id": 254,
      "content": "<|reserved_special_token_249|>",
      "single_word": false,
      "lstrip": false,
      "rstrip": false,
      "normalized": false,
      "special": true
    },
    {
      "id": 255,
      "content": "<|reserved_special_token_250|>",
      "single_word": false,
      "lstrip": false,
      "rstrip": false,
      "normalized": false,
      "special": true
    }
  ],
  "normalizer": null,
  "pre_tokenizer": {
    "type": "Sequence",
    "pretokenizers": [
      {
        "type": "Split",
        "pattern": {
          "Regex": "(?i:'s|'t|'re|'ve|'m|'ll|'d)|[^\\r\\n\\p{L}\\p{N}]?\\p{L}+|\\p{N}{1,3}| ?[^\\s\\p{L}\\p{N}]+[\\r\\n]*|\\s*[\\r\\n]+|\\s+(?!\\S)|\\s+"
        },
        "behavior": "Isolated",
        "invert": false
      },
      {
        "type": "ByteLevel",
        "add_prefix_space": false,
        "trim_offsets": true,
        "use_regex": false
      }
    ]
  },
  "post_processor": {
    "type": "ByteLevel",
    "add_prefix_space": true,
    "trim_offsets": false,
    "use_regex": true
  },
  "decoder": {
    "type": "ByteLevel",
    "add_prefix_space": true,
    "trim_offsets": true,
    "use_regex": true
  },
  "model": {
    "type": "BPE",
    "dropout": null,
    "unk_token": null,
    "continuing_subword_prefix": null,
    "end_of_word_suffix": null,
    "fuse_unk": false,
    "byte_fallback": false,
    "vocab": {
      "<|begin_of_text|>": 0,
      "<|end_of_text|>": 1,
      "<|reserved_special_token_0|>": 2,
      "<|reserved_special_token_1|>": 3,
      "<|reserved_special_token_2|>": 4,
      "<|reserved_special_token_3|>": 5,
      "<|start_header_id|>": 6,
      "<|end_header_id|>": 7,
      "<|reserved_special_token_4|>": 8,
      "<|eot_id|>": 9,
      "<|reserved_special_token_5|>": 10,
      "<|reserved_special_token_6|>": 11,
      "<|reserved_special_token_7|>": 12,
      "<|reserved_special_token_8|>": 13,
      "<|reserved_special_token_9|>": 14,
      "<|reserved_special_token_10|>": 15,
      "<|reserved_special_token_11|>": 16,
      "<|reserved_special_token_12|>": 17,
      "<|reserved_special_token_13|>": 18,
      "<|reserved_special_token_14|>": 19,
      "<|reserved_special_token_15|>": 20,
      "<|reserved_special_token_16|>": 21,
      "<|reserved_special_token_17|>": 22,
      "<|reserved_special_token_18|>": 23,
      "<|reserved_special_token_19|>": 24,
      "<|reserved_special_token_20|>": 25,
      "<|reserved_special_token_21|>": 26,
      "<|reserved_special_token_22|>": 27,
      "<|reserved_special_token_23|>": 28,
      "<|reserved_special_token_24|>": 29,
      "<|reserved_special_token_25|>": 30,
      "<|reserved_special_token_26|>": 31,
      "<|reserved_special_token_27|>": 32,
      "<|reserved_special_token_28|>": 33,
      "<|reserved_special_token_29|>": 34,
      "<|reserved_special_token_30|>": 35,
      "<|reserved_special_token_31|>": 36,
      "<|reserved_special_token_32|>": 37,
      "<|reserved_special_token_33|>": 38,
      "<|reserved_special_token_34|>": 39,
      "<|reserved_special_token_35|>": 40,
      "<|reserved_special_token_36|>": 41,
      "<|reserved_special_token_37|>": 42,
      "<|reserved_special_token_38|>": 43,
      "<|reserved_special_token_39|>": 44,
      "<|reserved_special_token_40|>": 45,
      "<|reserved_special_token_41|>": 46,
      "<|reserved_special_token_42|>": 47,
      "<|reserved_special_token_43|>": 48,
      "<|reserved_special_token_44|>": 49,
      "<|reserved_special_token_45|>": 50,
      "<|reserved_special_token_46|>": 51,
      "<|reserved_special_token_47|>": 52,
      "<|reserved_special_token_48|>": 53,
      "<|reserved_special_token_49|>": 54,
      "<|reserved_special_token_50|>": 55,
      "<|reserved_special_token_51|>": 56,
      "<|reserved_special_token_52|>": 57,
      "<|reserved_special_token_53|>": 58,
      "<|reserved_special_token_54|>": 59,
      "<|reserved_special_token_55|>": 60,
      "<|reserved_special_token_56|>": 61,
      "<|reserved_special_token_57|>": 62,
      "<|reserved_special_token_58|>": 63,
      "<|reserved_special_token_59|>": 64,
      "<|reserved_special_token_60|>": 65,
      "<|reserved_special_token_61|>": 66,
      "<|reserved_special_token_62|>": 67,
      "<|reserved_special_token_63|>": 68,
      "<|reserved_special_token_64|>": 69,
      "<|reserved_special_token_65|>": 70,
      "<|reserved_special_token_66|>": 71,
      "<|reserved_special_token_67|>": 72,
      "<|reserved_special_token_68|>": 73,
      "<|reserved_special_token_69|>": 74,
      "<|reserved_special_token_70|>": 75,
      "<|reserved_special_token_71|>": 76,
      "<|reserved_special_token_72|>": 77,
      "<|reserved_special_token_73|>": 78,
      "<|reserved_special_token_74|>": 79,
      "<|reserved_special_token_75|>": 80,
      "<|reserved_special_token_76|>": 81,
      "<|reserved_special_token_77|>": 82,
      "<|reserved_special_token_78|>": 83,
      "<|reserved_special_token_79|>": 84,
      "<|reserved_special_token_80|>": 85,
      "<|reserved_special_token_81|>": 86,
      "<|reserved_special_token_82|>": 87,
      "<|reserved_special_token_83|>": 88,
      "<|reserved_special_token_84|>": 89,
      "<|reserved_special_token_85|>": 90,
      "<|reserved_special_token_86|>": 91,
      "<|reserved_special_token_87|>": 92,
      "<|reserved_special_token_88|>": 93,
      "<|reserved_special_token_89|>": 94,
      "<|reserved_special_token_90|>": 95,
      "<|reserved_special_token_91|>": 96,
      "<|reserved_special_token_92|>": 97,
      "<|reserved_special_token_93|>": 98,
      "<|reserved_special_token_94|>": 99,
      "<|reserved_special_token_95|>": 100,
      "<|reserved_special_token_96|>": 101,
      "<|reserved_special_token_97|>": 102,
      "<|reserved_special_token_98|>": 103,
      "<|reserved_special_token_99|>": 104,
      "<|reserved_special_token_100|>": 105,
      "<|reserved_special_token_101|>": 106,
      "<|reserved_special_token_102|>": 107,
      "<|reserved_special_token_103|>": 108,
      "<|reserved_special_token_104|>": 109,
      "<|reserved_special_token_105|>": 110,
      "<|reserved_special_token_106|>": 111,
      "<|reserved_special_token_107|>": 112,
      "<|reserved_special_token_108|>": 113,
      "<|reserved_special_token_109|>": 114,
      "<|reserved_special_token_110|>": 115,
      "<|reserved_special_token_111|>": 116,
      "<|reserved_special_token_112|>": 117,
      "<|reserved_special_token_113|>": 118,
      "<|reserved_special_token_114|>": 119,
      "<|reserved_special_token_115|>": 120,
      "<|reserved_special_token_116|>": 121,
      "<|reserved_special_token_117|>": 122,
      "<|reserved_special_token_118|>": 123,
      "<|reserved_special_token_119|>": 124,
      "<|reserved_special_token_120|>": 125,
      "<|reserved_special_token_121|>": 126,
      "<|reserved_special_token_122|>": 127,
      "<|reserved_special_token_123|>": 128,
      "<|reserved_special_token_124|>": 129,
      "<|reserved_special_token_125|>": 130,
      "<|reserved_special_token_126|>": 131,
      "<|reserved_special_token_127|>": 132,
      "<|reserved_special_token_128|>": 133,
      "<|reserved_special_token_129|>": 134,
      "<|reserved_special_token_130|>": 135,
      "<|reserved_special_token_131|>": 136,
      "<|reserved_special_token_132|>": 137,
      "<|reserved_special_token_133|>": 138,
      "<|reserved_special_token_134|>": 139,
      "<|reserved_special_token_135|>": 140,
      "<|reserved_special_token_136|>": 141,
      "<|reserved_special_token_137|>": 142,
      "<|reserved_special_token_138|>": 143,
      "<|reserved_special_token_139|>": 144,
      "<|reserved_special_token_140|>": 145,
      "<|reserved_special_token_141|>": 146,
      "<|reserved_special_token_142|>": 147,
      "<|reserved_special_token_143|>": 148,
      "<|reserved_special_token_144|>": 149,
      "<|reserved_special_token_145|>": 150,
      "<|reserved_special_token_146|>": 151,
      "<|reserved_special_token_147|>": 152,
      "<|reserved_special_token_148|>": 153,
      "<|reserved_special_token_149|>": 154,
      "<|reserved_special_token_150|>": 155,
      "<|reserved_special_token_151|>": 156,
      "<|reserved_special_token_152|>": 157,
      "<|reserved_special_token_153|>": 158,
      "<|reserved_special_token_154|>": 159,
      "<|reserved_special_token_155|>": 160,
      "<|reserved_special_token_156|>": 161,
      "<|reserved_special_token_157|>": 162,
      "<|reserved_special_token_158|>": 163,
      "<|reserved_special_token_159|>": 164,
      "<|reserved_special_token_160|>": 165,
      "<|reserved_special_token_161|>": 166,
      "<|reserved_special_token_162|>": 167,
      "<|reserved_special_token_163|>": 168,
      "<|reserved_special_token_164|>": 169,
      "<|reserved_special_token_165|>": 170,
      "<|reserved_special_token_166|>": 171,
      "<|reserved_special_token_167|>": 172,
      "<|reserved_special_token_168|>": 173,
      "<|reserved_special_token_169|>": 174,
      "<|reserved_special_token_170|>": 175,
      "<|reserved_special_token_171|>": 176,
      "<|reserved_special_token_172|>": 177,
      "<|reserved_special_token_173|>": 178,
      "<|reserved_special_token_174|>": 179,
      "<|reserved_special_token_175|>": 180,
      "<|reserved_special_token_176|>": 181,
      "<|reserved_special_token_177|>": 182,
      "<|reserved_special_token_178|>": 183,
      "<|reserved_special_token_179|>": 184,
      "<|reserved_special_token_180|>": 185,
      "<|reserved_special_token_181|>": 186,
      "<|reserved_special_token_182|>": 187,
      "<|reserved_special_token_183|>": 188,
      "<|reserved_special_token_184|>": 189,
      "<|reserved_special_token_185|>": 190,
      "<|reserved_special_token_186|>": 191,
      "<|reserved_special_token_187|>": 192,
      "<|reserved_special_token_188|>": 193,
      "<|reserved_special_token_189|>": 194,
      "<|reserved_special_token_190|>": 195,
      "<|reserved_special_token_191|>": 196,
      "<|reserved_special_token_192|>": 197,
      "<|reserved_special_token_193|>": 198,
      "<|reserved_special_token_194|>": 199,
      "<|reserved_special_token_195|>": 200,
      "<|reserved_special_token_196|>": 201,
      "<|reserved_special_token_197|>": 202,
      "<|reserved_special_token_198|>": 203,
      "<|reserved_special_token_199|>": 204,
      "<|reserved_special_token_200|>": 205,
      "<|reserved_special_token_201|>": 206,
      "<|reserved_special_token_202|>": 207,
      "<|reserved_special_token_203|>": 208,
      "<|reserved_special_token_204|>": 209,
      "<|reserved_special_token_205|>": 210,
      "<|reserved_special_token_206|>": 211,
      "<|reserved_special_token_207|>": 212,
      "<|reserved_special_token_208|>": 213,
      "<|reserved_special_token_209|>": 214,
      "<|reserved_special_token_210|>": 215,
      "<|reserved_special_token_211|>": 216,
      "<|reserved_special_token_212|>": 217,
      "<|reserved_special_token_213|>": 218,
      "<|reserved_special_token_214|>": 219,
      "<|reserved_special_token_215|>": 220,
      "<|reserved_special_token_216|>": 221,
      "<|reserved_special_token_217|>": 222,
      "<|reserved_special_token_218|>": 223,
      "<|reserved_special_token_219|>": 224,
      "<|reserved_special_token_220|>": 225,
      "<|reserved_special_token_221|>": 226,
      "<|reserved_special_token_222|>": 227,
      "<|reserved_special_token_223|>": 228,
      "<|reserved_special_token_224|>": 229,
      "<|reserved_special_token_225|>": 230,
      "<|reserved_special_token_226|>": 231,
      "<|reserved_special_token_227|>": 232,
      "<|reserved_special_token_228|>": 233,
      "<|reserved_special_token_229|>": 234,
      "<|reserved_special_token_230|>": 235,
      "<|reserved_special_token_231|>": 236,
      "<|reserved_special_token_232|>": 237,
      "<|reserved_special_token_233|>": 238,
      "<|reserved_special_token_234|>": 239,
      "<|reserved_special_token_235|>": 240,
      "<|reserved_special_token_236|>": 241,
      "<|reserved_special_token_237|>": 242,
      "<|reserved_special_token_238|>": 243,
      "<|reserved_special_token_239|>": 244,
      "<|reserved_special_token_240|>": 245,
      "<|reserved_special_token_241|>": 246,
      "<|reserved_special_token_242|>": 247,
      "<|reserved_special_token_243|>": 248,
      "<|reserved_special_token_244|>": 249,
      "<|reserved_special_token_245|>": 250,
      "<|reserved_special_token_246|>": 251,
      "<|reserved_special_token_247|>": 252,
      "<|reserved_special_token_248|>": 253,
      "<|reserved_special_token_249|>": 254,
      "<|reserved_special_token_250|>": 255,
      "!": 256,
      "\"": 257,
      "#": 258,
      "$": 259,
      "%": 260,
      "&": 261,
      "'": 262,
      "(": 263,
      ")": 264,
      "+": 265,
      ",": 266,
      "-": 267,
      ".": 268,
      "/": 269,
      "0": 270,
      "1": 271,
      "2": 272,
      "3": 273,
      "4": 274,
      "5": 275,
      "6": 276,
      "7": 277,
      "8": 278,
      "9": 279,
      ":": 280,
      ";": 281,
      "=": 282,
      "@": 283,
      "A": 284,
      "B": 285,
      "C": 286,
      "D": 287,
      "E": 288,
      "F": 289,
      "G": 290,
      "H": 291,
      "I": 292,
      "J": 293,
      "K": 294,
      "L": 295,
      "M": 296,
      "N": 297,
      "O": 298,
      "P": 299,
      "Q": 300,
      "R": 301,
      "S": 302,
      "T": 303,
      "U": 304,
      "V": 305,
      "W": 306,
      "X": 307,
      "Y": 308,
      "Z": 309,
      "[": 310,
      "]": 311,
      "a": 312,
      "b": 313,
      "c": 314,
      "d": 315,
      "e": 316,
      "f": 317,
      "g": 318,
      "h": 319,
      "i": 320,
      "j": 321,
      "k": 322,
      "l": 323,
      "m": 324,
      "n": 325,
      "o": 326,
      "p": 327,
      "q": 328,
      "r": 329,
      "s": 330,
      "t": 331,
      "u": 332,
      "v": 333,
      "w": 334,
      "x": 335,
      "y": 336,
      "z": 337,
      "~": 338,
      "¡": 339,
      "¢": 340,
      "£": 341,
      "¤": 342,
      "¥": 343,
      "¦": 344,
      "©": 345,
      "ª": 346,
      "«": 347,
      "®": 348,
      "¯": 349,
      "°": 350,
      "±": 351,
      "²": 352,
      "³": 353,
      "´": 354,
      "µ": 355,
      "¸": 356,
      "¹": 357,
      "¼": 358,
      "½": 359,
      "¿": 360,
      "Â": 361,
      "Ã": 362,
      "Ä": 363,
      "Å": 364,
      "á": 365,
      "â": 366,
      "ã": 367,
      "ä": 368,
      "å": 369,
      "æ": 370,
      "ç": 371,
      "è": 372,
      "é": 373,
      "ï": 374,
      "Ċ": 375,
      "Ġ": 376,
      "Ģ": 377,
      "ģ": 378,
      "Ĥ": 379,
      "ĥ": 380,
      "Ħ": 381,
      "ħ": 382,
      "Ĩ": 383,
      "ĩ": 384,
      "Ī": 385,
      "ī": 386,
      "Ĭ": 387,
      "ĭ": 388,
      "Į": 389,
      "į": 390,
      "ı": 391,
      "Ĳ": 392,
      "ĳ": 393,
      "Ĵ": 394,
      "ĵ": 395,
      "Ķ": 396,
      "Ĺ": 397,
      "ĺ": 398,
      "Ļ": 399,
      "Ľ": 400,
      "ľ": 401,
      "Ŀ": 402,
      "Ł": 403,
      "ł": 404,
      "Ń": 405,
      "Ġt": 406,
      "he": 407,
      "Ġa": 408,
      "in": 409,
      "Ġthe": 410,
      "er": 411,
      "on": 412,
      "Ġ,": 413,
      "re": 414,
      "Ġo": 415,
      "ed": 416,
      "Ġw": 417,
      "Ġs": 418,
      "at": 419,
      "nd": 420,
      "Ġ.": 421,
      "or": 422,
      "it": 423,
      "es": 424,
      "Ġc": 425,
      "Ġf": 426,
      "en": 427,
      "Ġof": 428,
      "Ġin": 429,
      "ar": 430,
      "an": 431,
      "al": 432,
      "Ġb": 433,
      "ing": 434,
      "Ġp": 435,
      "is": 436,
      "Ġand": 437,
      "as": 438,
      "Ġd": 439,
      "Ġm": 440,
      "Ġto": 441,
      "ro": 442,
      "ion": 443,
      "ic": 444,
      "Ġg": 445,
      "Ġh": 446,
      "ĠT": 447,
      "Ġre": 448,
      "le": 449,
      "ou": 450,
      "Ġ=": 451,
      "ĠA": 452,
      "Ġth": 453,
      "ĠS": 454,
      "ly": 455,
      "om": 456,
      "ac": 457,
      "ent": 458,
      "ĠĊ": 459,
      "ir": 460,
      "il": 461,
      "Ġl": 462,
      "Ġ@": 463,
      "Ġn": 464,
      "st": 465,
      "am": 466,
      "ĠC": 467,
      "Ġwas": 468,
      "Ġe": 469,
      "ĠThe": 470,
      "iv": 471,
      "Ġbe": 472,
      "Ġfor": 473,
      "ot": 474,
      "Ġ\"": 475,
      "ad": 476,
      "ation": 477,
      "od": 478,
      "ĠB": 479,
      "ay": 480,
      "ter": 481,
      "-@": 482,
      "Ġ@-@": 483,
      "ol": 484,
      "ith": 485,
      "ig": 486,
      "Ġas": 487,
      "Ġon": 488,
      "Ġde": 489,
      "im": 490,
      "ct": 491,
      "her": 492,
      "Ġwith": 493,
      "Ġ'": 494,
      "ĠI": 495,
      "ur": 496,
      "el": 497,
      "id": 498,
      "ĠM": 499,
      "un": 500,
      "us": 501,
      "ĠH": 502,
      "et": 503,
      "ow": 504,
      "ul": 505,
      "Ġthat": 506,
      "Ġst": 507,
      "ut": 508,
      "ies": 509,
      "ĠG": 510,
      "um": 511,
      "Ġal": 512,
      "ra": 513,
      "ce": 514,
      "ĠP": 515,
      "ĠR": 516,
      "ver": 517,
      "ĠF": 518,
      "th": 519,
      "ĠN": 520,
      "ere": 521,
      "Ġwh": 522,
      "Ġcon": 523,
      "ĠE": 524,
      "Ġwere": 525,
      "rom": 526,
      "ri": 527,
      "Ġby": 528,
      "em": 529,
      "ch": 530,
      "ist": 531,
      "Ġan": 532,
      "ers": 533,
      "Ġgod": 534,
      "pt": 535,
      "19": 536,
      "Ġ)": 537,
      "os": 538,
      "Ġ(": 539,
      "oc": 540,
      "Ġis": 541,
      "Ġat": 542,
      "if": 543,
      "and": 544,
      "ĠW": 545,
      "av": 546,
      "pe": 547,
      "ĠL": 548,
      "Ġse": 549,
      "Ġcom": 550,
      "ĠD": 551,
      "ate": 552,
      "ain": 553,
      "Ġor": 554,
      "ess": 555,
      "ld": 556,
      "ian": 557,
      "ort": 558,
      "hi": 559,
      "res": 560,
      "ame": 561,
      "Ġit": 562,
      "Ġfrom": 563,
      "Ġpl": 564,
      "ĠJ": 565,
      "Ġare": 566,
      "Ġsu": 567,
      "ack": 568,
      "ore": 569,
      "all": 570,
      "lu": 571,
      "Ġhe": 572,
      "ht": 573,
      "ag": 574,
      "art": 575,
      "00": 576,
      "ated": 577,
      "ant": 578,
      "se": 579,
      "op": 580,
      "est": 581,
      "Ġair": 582,
      "Ġâ": 583,
      "Ġch": 584,
      "ive": 585,
      "Ġpro": 586,
      "rou": 587,
      "ĠâĢ": 588,
      "Ġgods": 589,
      "red": 590,
      "ich": 591,
      "ities": 592,
      "ak": 593,
      "ity": 594,
      "qu": 595,
      "ĠIn": 596,
      "ab": 597,
      "ine": 598,
      "Ġ;": 599,
      "ial": 600,
      "ie": 601,
      "Ġr": 602,
      "ap": 603,
      "ong": 604,
      "ard": 605,
      "Ġne": 606,
      "hip": 607,
      "ther": 608,
      "Ġwor": 609,
      "Ġex": 610,
      "gy": 611,
      "les": 612,
      "Ġwhich": 613,
      "ĠK": 614,
      "ĠU": 615,
      "ans": 616,
      "Ġtheir": 617,
      "ition": 618,
      "ĠO": 619,
      "Ġhis": 620,
      "Ġher": 621,
      "Ġhad": 622,
      "Ġnot": 623,
      "ight": 624,
      "ost": 625,
      "Ġv": 626,
      "Ġtr": 627,
      "ft": 628,
      "ary": 629,
      "Ġu": 630,
      "port": 631,
      "gh": 632,
      "ĠEgy": 633,
      "ĠEgypt": 634,
      "ment": 635,
      "ations": 636,
      "ign": 637,
      "Ġk": 638,
      "ia": 639,
      "ĠV": 640,
      "ĠCh": 641,
      "per": 642,
      "ru": 643,
      "ould": 644,
      "ock": 645,
      "low": 646,
      "Ġy": 647,
      "ord": 648,
      "raft": 649,
      "ts": 650,
      "ust": 651,
      "Ġar": 652,
      "Ġinc": 653,
      "18": 654,
      "Ġsh": 655,
      "Ġper": 656,
      "Ġcont": 657,
      "ĠâĢĵ": 658,
      "Ġun": 659,
      "Ġte": 660,
      "ally": 661,
      "ĠSt": 662,
      "ill": 663,
      "ous": 664,
      "ear": 665,
      "ge": 666,
      "ome": 667,
      "ber": 668,
      "Ġplay": 669,
      "ov": 670,
      "Ġother": 671,
      "ff": 672,
      "ory": 673,
      "rit": 674,
      "our": 675,
      "Ġcomm": 676,
      "ast": 677,
      "ide": 678,
      "ave": 679,
      "ect": 680,
      "Ġle": 681,
      "cc": 682,
      "wo": 683,
      "Ġcl": 684,
      "Ġdeities": 685,
      "ĠEgyptian": 686,
      "20": 687,
      "Ġwhe": 688,
      "ĠAr": 689,
      "ĠHe": 690,
      "Ġint": 691,
      "Ġdes": 692,
      "Ġone": 693,
      "ions": 694,
      "hed": 695,
      "fter": 696,
      "oin": 697,
      "so": 698,
      "Ġman": 699,
      "Ġgame": 700,
      "ild": 701,
      "craft": 702,
      "og": 703,
      "Ġbut": 704,
      "Ġwho": 705,
      "ĠGA": 706,
      "Ġalso": 707,
      "Ġshe": 708,
      "ings": 709,
      "ted": 710,
      "tle": 711,
      "ue": 712,
      "Ġthem": 713,
      "Ġpart": 714,
      "Ġrec": 715,
      "erv": 716,
      "ark": 717,
      "ime": 718,
      "iz": 719,
      "Ġen": 720,
      "Ġact": 721,
      "pl": 722,
      "Ġro": 723,
      "Ġim": 724,
      "Ġus": 725,
      "Ġfir": 726,
      "out": 727,
      "Ġform": 728,
      "Ġits": 729,
      "round": 730,
      "ance": 731,
      "Ġhas": 732,
      "Ġyear": 733,
      "ass": 734,
      "ason": 735,
      "ron": 736,
      "ure": 737,
      "Ġab": 738,
      "old": 739,
      "Ġfirst": 740,
      "ach": 741,
      "Ġaircraft": 742,
      "Ġtwo": 743,
      "Ġhave": 744,
      ",@": 745,
      ".@": 746,
      "Ġthis": 747,
      "Ġ@,@": 748,
      "Ġ@.@": 749,
      "ull": 750,
      "ire": 751,
      "ish": 752,
      "Ġ:": 753,
      "Ġap": 754,
      "act": 755,
      "Ġcomp": 756,
      "ky": 757,
      "ph": 758,
      "Ġspe": 759,
      "nder": 760,
      "Ġoff": 761,
      "ade": 762,
      "ĠIt": 763,
      "uring": 764,
      "ell": 765,
      "Ġall": 766,
      "ok": 767,
      "ten": 768,
      "Ġover": 769,
      "Ġrel": 770,
      "ames": 771,
      "lud": 772,
      "ning": 773,
      "Ġmore": 774,
      "ious": 775,
      "ry": 776,
      "ace": 777,
      "ult": 778,
      "201": 779,
      "Ġsc": 780,
      "con": 781,
      "du": 782,
      "ll": 783,
      "vel": 784,
      "Ġthey": 785,
      "Ġrep": 786,
      "are": 787,
      "ied": 788,
      "ree": 789,
      "reat": 790,
      "als": 791,
      "Ġbu": 792,
      "Ġreg": 793,
      "resent": 794,
      "Ġteam": 795,
      "Ġres": 796,
      "oun": 797,
      "ced": 798,
      "ence": 799,
      "Ġdiv": 800,
      "ational": 801,
      "ke": 802,
      "Ġtime": 803,
      "Ġafter": 804,
      "Ġoper": 805,
      "Ġsp": 806,
      "Ġpr": 807,
      "Ġpre": 808,
      "Ġgo": 809,
      "ĠUn": 810,
      "Ġag": 811,
      "Ġout": 812,
      "orm": 813,
      "Ġrem": 814,
      "Ġchar": 815,
      "te": 816,
      "ub": 817,
      "Ġad": 818,
      "ĠShe": 819,
      "ower": 820,
      "Ġwork": 821,
      "Ġup": 822,
      "ĠTh": 823,
      "Ġev": 824,
      "ular": 825,
      "Ġfl": 826,
      "ough": 827,
      "Ġbec": 828,
      "Ġship": 829,
      "iss": 830,
      "oth": 831,
      "age": 832,
      "Ġinto": 833,
      "200": 834,
      "iation": 835,
      "able": 836,
      "ĠVal": 837,
      "ern": 838,
      "ittle": 839,
      "Ġco": 840,
      "Ġcould": 841,
      "ick": 842,
      "ents": 843,
      "ĠRe": 844,
      "Ġinclud": 845,
      "ater": 846,
      "ited": 847,
      "ound": 848,
      "Ġthan": 849,
      "umb": 850,
      "rib": 851,
      "ip": 852,
      "Ġinter": 853,
      "ters": 854,
      "ets": 855,
      "Ġseason": 856,
      "ress": 857,
      "ile": 858,
      "Ġj": 859,
      "ased": 860,
      "Ġdis": 861,
      "Ġmost": 862,
      "Ġbeen": 863,
      "urn": 864,
      "own": 865,
      "ria": 866,
      "ĠValky": 867,
      "Ġthese": 868,
      "ors": 869,
      "Ġme": 870,
      "ical": 871,
      "Ġass": 872,
      "ung": 873,
      "Ġnew": 874,
      "air": 875,
      "lay": 876,
      "pos": 877,
      "ĠCol": 878,
      "fer": 879,
      "way": 880,
      "ons": 881,
      "Ġfe": 882,
      "Ġfour": 883,
      "ĠNe": 884,
      "Ġcons": 885,
      "str": 886,
      "ific": 887,
      "Ġspec": 888,
      "form": 889,
      "ved": 890,
      "we": 891,
      "wn": 892,
      "Ġob": 893,
      "Ġsome": 894,
      "Ġduring": 895,
      "Ġhum": 896,
      "ĠAn": 897,
      "Ġear": 898,
      "Ġonly": 899,
      "rough": 900,
      "ĠValkyria": 901,
      "ble": 902,
      "bum": 903,
      "der": 904,
      "ix": 905,
      "ite": 906,
      "Ġcar": 907,
      "Ġcan": 908,
      "Ġfin": 909,
      "ener": 910,
      "ict": 911,
      "Ġbeing": 912,
      "Ġalbum": 913,
      "ĠLittle": 914,
      "Ġaer": 915,
      "ates": 916,
      "outh": 917,
      "ake": 918,
      "Ġunder": 919,
      "Ġwhen": 920,
      "Ġcharac": 921,
      "ike": 922,
      "ĠAm": 923,
      "ĠAs": 924,
      "ĠAt": 925,
      "Ġthrough": 926,
      "Ġno": 927,
      "ĠRock": 928,
      "Ġmany": 929,
      "Ġdivine": 930,
      "ey": 931,
      "fore": 932,
      "Ġwould": 933,
      "Ġsa": 934,
      "Ġso": 935,
      "Ġcent": 936,
      "ise": 937,
      "ilot": 938,
      "oll": 939,
      "ction": 940,
      "Ġsuch": 941,
      "ght": 942,
      "sen": 943,
      "ens": 944,
      "ice": 945,
      "ĠSe": 946,
      "Ġbet": 947,
      "ĠBl": 948,
      "ĠBlu": 949,
      "arker": 950,
      "ween": 951,
      "ces": 952,
      "oh": 953,
      "Ġacc": 954,
      "199": 955,
      "ose": 956,
      "ez": 957,
      "Ġtra": 958,
      "ren": 959,
      "Ġma": 960,
      "igh": 961,
      "emp": 962,
      "ĠJack": 963,
      "Ġrepresent": 964,
      "HL": 965,
      "erm": 966,
      "Ġsm": 967,
      "Ġsy": 968,
      "ase": 969,
      "ĠCull": 970,
      "192": 971,
      "Ġtrans": 972,
      "Ġrecord": 973,
      "ĠCullen": 974,
      "ck": 975,
      "ired": 976,
      "oy": 977,
      "ud": 978,
      "ished": 979,
      "Ġmy": 980,
      "Ġmade": 981,
      "other": 982,
      "ĠBarker": 983,
      "though": 984,
      "ĠKing": 985,
      "Ġam": 986,
      "Ġind": 987,
      "ards": 988,
      "Ġarm": 989,
      "ĠColumb": 990,
      "Ġbetween": 991,
      "ĠBlue": 992,
      "ily": 993,
      "tain": 994,
      "ating": 995,
      "ann": 996,
      "icles": 997,
      "Ġend": 998,
      "Ġbel": 999,
      "odrom": 1000,
      "191": 1001,
      "Ġatt": 1002,
      "ĠDe": 1003,
      "Ġsup": 1004,
      "Ġdesign": 1005,
      "ilding": 1006,
      "velop": 1007,
      "senal": 1008,
      "ĠJackets": 1009,
      "cial": 1010,
      "gan": 1011,
      "one": 1012,
      "Ġsign": 1013,
      "Ġpers": 1014,
      "Ġpoin": 1015,
      "Ġdif": 1016,
      "Ġhim": 1017,
      "ollow": 1018,
      "igin": 1019,
      "use": 1020,
      "cept": 1021,
      "ĠFern": 1022,
      "andez": 1023,
      "Ġworld": 1024,
      "ĠUK": 1025,
      "ized": 1026,
      "Ġappe": 1027,
      "cond": 1028,
      "ĠFernandez": 1029,
      "ran": 1030,
      "Ġthere": 1031,
      "ered": 1032,
      "Ġop": 1033,
      "ĠAust": 1034,
      "Ġbefore": 1035,
      "Ġdevelop": 1036,
      "Ġabout": 1037,
      "Ġbelie": 1038,
      "15": 1039,
      "ah": 1040,
      "lic": 1041,
      "up": 1042,
      "viation": 1043,
      "ind": 1044,
      "Ġmain": 1045,
      "Ġmov": 1046,
      "Ġtow": 1047,
      "Ġgiv": 1048,
      "Ġgun": 1049,
      "Ġgold": 1050,
      "amp": 1051,
      "Ġwhile": 1052,
      "iew": 1053,
      "186": 1054,
      "Ġrelig": 1055,
      "iel": 1056,
      "Ġtemp": 1057,
      "Ġac": 1058,
      "Ġwe": 1059,
      "Ġserv": 1060,
      "Ġcre": 1061,
      "Ġcall": 1062,
      "Ġmon": 1063,
      "Ġthree": 1064,
      "ilt": 1065,
      "Ġlike": 1066,
      "Ġem": 1067,
      "tern": 1068,
      "istic": 1069,
      "Ġorigin": 1070,
      "000": 1071,
      "ĠChron": 1072,
      "Ġwhere": 1073,
      "Ġagain": 1074,
      "Ġremain": 1075,
      "Ġsmall": 1076,
      "ĠColumbus": 1077,
      "ĠChronicles": 1078,
      "Ġsur": 1079,
      "Ġpos": 1080,
      "Ġpilot": 1081,
      "ism": 1082,
      "ised": 1083,
      "Ġmil": 1084,
      "Ġgames": 1085,
      "ays": 1086,
      "pect": 1087,
      "Ġkn": 1088,
      "Ġused": 1089,
      "ped": 1090,
      "Ġest": 1091,
      "hen": 1092,
      "Ġwar": 1093,
      "Ġfly": 1094,
      "ang": 1095,
      "Ġboth": 1096,
      "Ġgl": 1097,
      "Ġloc": 1098,
      "ĠCA": 1099,
      "ived": 1100,
      "ĠII": 1101,
      "ety": 1102,
      "ĠNHL": 1103,
      "ember": 1104,
      "Ġclass": 1105,
      "Ġpartic": 1106,
      "Ġeng": 1107,
      "Ġoperations": 1108,
      "Ġaerodrom": 1109,
      "Ġcharacter": 1110,
      "dom": 1111,
      "ook": 1112,
      "hes": 1113,
      "orth": 1114,
      "its": 1115,
      "Ġbl": 1116,
      "Ġret": 1117,
      "omen": 1118,
      "ĠBe": 1119,
      "Ġstart": 1120,
      "avy": 1121,
      "ĠâĢĶ": 1122,
      "ĠOn": 1123,
      "Ġhuman": 1124,
      "ĠBlack": 1125,
      "cl": 1126,
      "eb": 1127,
      "eop": 1128,
      "Ġfollow": 1129,
      "Ġbat": 1130,
      "Ġdoll": 1131,
      "Ġmin": 1132,
      "row": 1133,
      "Ġrev": 1134,
      "Ġrele": 1135,
      "ĠAl": 1136,
      "ĠAll": 1137,
      "Ġlar": 1138,
      "imes": 1139,
      "umber": 1140,
      "Ġplayed": 1141,
      "ĠArk": 1142,
      "Ġdesc": 1143,
      "ĠThis": 1144,
      "layer": 1145,
      "Ġdollar": 1146,
      "ail": 1147,
      "ject": 1148,
      "ton": 1149,
      "Ġsame": 1150,
      "Ġinv": 1151,
      "Ġbro": 1152,
      "Ġpub": 1153,
      "ask": 1154,
      "ĠThere": 1155,
      "ĠBrit": 1156,
      "Ġdef": 1157,
      "Ġdep": 1158,
      "ĠMa": 1159,
      "Ġsecond": 1160,
      "Ġprodu": 1161,
      "Ġperform": 1162,
      "Ġcontin": 1163,
      "Ġactiv": 1164,
      "au": 1165,
      "ring": 1166,
      "ĠY": 1167,
      "Ġqu": 1168,
      "Ġwrit": 1169,
      "ath": 1170,
      "atory": 1171,
      "Ġback": 1172,
      "Ġdist": 1173,
      "ought": 1174,
      "198": 1175,
      "ife": 1176,
      "ĠLe": 1177,
      "ĠJoh": 1178,
      "Ġtrad": 1179,
      "ĠKingdom": 1180,
      "aw": 1181,
      "end": 1182,
      "ier": 1183,
      "ued": 1184,
      "int": 1185,
      "Ġwell": 1186,
      "Ġsong": 1187,
      "ative": 1188,
      "ork": 1189,
      "orn": 1190,
      "ank": 1191,
      "ister": 1192,
      "ĠSlayer": 1193,
      "Ġlong": 1194,
      "Ġnumber": 1195,
      "elf": 1196,
      "oci": 1197,
      "Ġsever": 1198,
      "Ġsaid": 1199,
      "ĠBlackie": 1200,
      "10": 1201,
      "cess": 1202,
      "dition": 1203,
      "oot": 1204,
      "ĠZ": 1205,
      "ercial": 1206,
      "reak": 1207,
      "Ġsing": 1208,
      "itu": 1209,
      "Ġpower": 1210,
      "ision": 1211,
      "Ġgener": 1212,
      "omm": 1213,
      "Ġeach": 1214,
      "ĠThey": 1215,
      "Ġdeity": 1216,
      "Ġimport": 1217,
      "Ġbuilt": 1218,
      "Ġbecame": 1219,
      "Ġperson": 1220,
      "ield": 1221,
      "Ġcalled": 1222,
      "ared": 1223,
      "led": 1224,
      "sp": 1225,
      "ship": 1226,
      "side": 1227,
      "Ġwin": 1228,
      "atic": 1229,
      "Ġcrit": 1230,
      "Ġph": 1231,
      "Ġdo": 1232,
      "Ġmet": 1233,
      "Ġhist": 1234,
      "Ġrece": 1235,
      "ĠSouth": 1236,
      "Ġlater": 1237,
      "ivil": 1238,
      "Ġalthough": 1239,
      "vern": 1240,
      "ĠFair": 1241,
      "ĠWar": 1242,
      "Ġsub": 1243,
      "ments": 1244,
      "Ġprev": 1245,
      "Ġagainst": 1246,
      "ĠArkans": 1247,
      "apt": 1248,
      "ever": 1249,
      "lished": 1250,
      "ood": 1251,
      "pro": 1252,
      "serv": 1253,
      "ty": 1254,
      "Ġoften": 1255,
      "Ġpur": 1256,
      "Ġdown": 1257,
      "rol": 1258,
      "ros": 1259,
      "ĠAir": 1260,
      "Ġalong": 1261,
      "Ġany": 1262,
      "aven": 1263,
      "Ġorder": 1264,
      "Ġcontr": 1265,
      "ĠEgyptians": 1266,
      "Ġoffic": 1267,
      "Ġincluding": 1268,
      "Ġearly": 1269,
      "Ġdescrib": 1270,
      "ĠBritish": 1271,
      "ĠJohn": 1272,
      "ĠArkansas": 1273,
      "gg": 1274,
      "ib": 1275,
      "jor": 1276,
      "lant": 1277,
      "ny": 1278,
      "Ġ/": 1279,
      "Ġra": 1280,
      "ature": 1281,
      "Ġinf": 1282,
      "ange": 1283,
      "Ġpo": 1284,
      "Ġiss": 1285,
      "ified": 1286,
      "ccess": 1287,
      "Ġyears": 1288,
      "urned": 1289,
      "ĠNew": 1290,
      "ĠAtlant": 1291,
      "Ġmyth": 1292,
      "Ġpoints": 1293,
      "Ġglid": 1294,
      "12": 1295,
      "13": 1296,
      "dess": 1297,
      "field": 1298,
      "land": 1299,
      "man": 1300,
      "ray": 1301,
      "rist": 1302,
      "ured": 1303,
      "ually": 1304,
      "ined": 1305,
      "Ġown": 1306,
      "Ġfound": 1307,
      "Ġinst": 1308,
      "arian": 1309,
      "ash": 1310,
      "Ġdid": 1311,
      "roy": 1312,
      "Ġrequ": 1313,
      "lect": 1314,
      "ivate": 1315,
      "ĠHung": 1316,
      "owever": 1317,
      "ĠRa": 1318,
      "Ġgoddess": 1319,
      "lub": 1320,
      "Ġart": 1321,
      "Ġlead": 1322,
      "Ġregul": 1323,
      "Ġobserv": 1324,
      "Ġflying": 1325,
      "Ġparticular": 1326,
      "ee": 1327,
      "rÃ": 1328,
      "Ġent": 1329,
      "Ġver": 1330,
      "Ġaround": 1331,
      "ins": 1332,
      "ines": 1333,
      "itary": 1334,
      "Ġcoin": 1335,
      "Ġcoun": 1336,
      "Ġport": 1337,
      "Ġmod": 1338,
      "Ġhigh": 1339,
      "ĠAd": 1340,
      "ĠAfter": 1341,
      "ĠCon": 1342,
      "ctor": 1343,
      "ĠIs": 1344,
      "Ġstand": 1345,
      "uth": 1346,
      "ĠEn": 1347,
      "Ġplace": 1348,
      "Ġsuccess": 1349,
      "Ġexp": 1350,
      "ights": 1351,
      "Ġcommercial": 1352,
      "Ġcomple": 1353,
      "ĠUnited": 1354,
      "ribut": 1355,
      "Ġdiffer": 1356,
      "Ġfollowing": 1357,
      "Ġseveral": 1358,
      "Ġsingle": 1359,
      "ĠAtlanta": 1360,
      "iod": 1361,
      "nect": 1362,
      "ps": 1363,
      "uch": 1364,
      "ince": 1365,
      "rew": 1366,
      "read": 1367,
      "eder": 1368,
      "Ġser": 1369,
      "ather": 1370,
      "Ġfam": 1371,
      "ale": 1372,
      "Ġmay": 1373,
      "Ġgreat": 1374,
      "ĠTower": 1375,
      "ĠThese": 1376,
      "Ġdem": 1377,
      "usic": 1378,
      "Ġstru": 1379,
      "raph": 1380,
      "ĠFlow": 1381,
      "ĠNov": 1382,
      "emb": 1383,
      "isted": 1384,
      "ively": 1385,
      "ports": 1386,
      "ĠChrist": 1387,
      "Ġincre": 1388,
      "ission": 1389,
      "Ġtower": 1390,
      "Ġimportant": 1391,
      "17": 1392,
      "ible": 1393,
      "ob": 1394,
      "ward": 1395,
      "Ńny": 1396,
      "Ġterm": 1397,
      "iness": 1398,
      "Ġthen": 1399,
      "Ġcare": 1400,
      "eng": 1401,
      "ars": 1402,
      "Ġprom": 1403,
      "rop": 1404,
      "Ġgu": 1405,
      "Ġlos": 1406,
      "Ġname": 1407,
      "Ġbegan": 1408,
      "ĠBu": 1409,
      "Ġwithin": 1410,
      "Ġstate": 1411,
      "ĠNavy": 1412,
      "Ġconnect": 1413,
      "Ġchild": 1414,
      "Ġprov": 1415,
      "Ġtrack": 1416,
      "Ġrole": 1417,
      "ĠItal": 1418,
      "Ġbuilding": 1419,
      "Ġships": 1420,
      "Ġdevelopment": 1421,
      "Ġpilots": 1422,
      "Ġaerodromes": 1423,
      "eople": 1424,
      "ĠZrÃ": 1425,
      "Ġprevious": 1426,
      "ĠHungarian": 1427,
      "Ńnyi": 1428,
      "ĠZrÃŃnyi": 1429,
      "ause": 1430,
      "ef": 1431,
      "ope": 1432,
      "ting": 1433,
      "xt": 1434,
      "ãģ": 1435,
      "Ġaviation": 1436,
      "Ġwomen": 1437,
      "Ġsom": 1438,
      "Ġpat": 1439,
      "Ġpop": 1440,
      "Ġday": 1441,
      "ional": 1442,
      "Ġreal": 1443,
      "ĠSh": 1444,
      "ilm": 1445,
      "ility": 1446,
      "Ġnational": 1447,
      "stem": 1448,
      "iver": 1449,
      "ury": 1450,
      "ĠMay": 1451,
      "Ġconc": 1452,
      "ried": 1453,
      "Ġann": 1454,
      "194": 1455,
      "ociation": 1456,
      "Ġcomb": 1457,
      "aged": 1458,
      "ages": 1459,
      "ruit": 1460,
      "ĠArsenal": 1461,
      "ĠHeaven": 1462,
      "Ġeven": 1463,
      "Ġtransport": 1464,
      "Ġsupport": 1465,
      "Ġopen": 1466,
      "ĠAustro": 1467,
      "Ġgiven": 1468,
      "Ġmilitary": 1469,
      "Ġtradition": 1470,
      "ociety": 1471,
      "Ġreceived": 1472,
      "ross": 1473,
      "Ġdescribed": 1474,
      "ĠFlower": 1475,
      "ĠNovember": 1476,
      "ric": 1477,
      "ug": 1478,
      "und": 1479,
      "ues": 1480,
      "eric": 1481,
      "ond": 1482,
      "Ġcal": 1483,
      "Ġcol": 1484,
      "Ġfung": 1485,
      "aria": 1486,
      "Ġpresent": 1487,
      "Ġdire": 1488,
      "Ġtook": 1489,
      "ouse": 1490,
      "aced": 1491,
      "iron": 1492,
      "Ġlive": 1493,
      "Ġlast": 1494,
      "Ġlife": 1495,
      "amed": 1496,
      "Ġele": 1497,
      "Ġequ": 1498,
      "ivers": 1499,
      "Ġdec": 1500,
      "ĠInd": 1501,
      "osed": 1502,
      "Ġhel": 1503,
      "aking": 1504,
      "Ġcommon": 1505,
      "Ġcommand": 1506,
      "Ġgoal": 1507,
      "Ġjust": 1508,
      "Ġconsid": 1509,
      "Ġspecies": 1510,
      "ĠAss": 1511,
      "Ġbelieved": 1512,
      "Ġoriginal": 1513,
      "ĠCAA": 1514,
      "Ġcritic": 1515,
      "uthor": 1516,
      "Ġseries": 1517,
      "Ġsomet": 1518,
      "bia": 1519,
      "cre": 1520,
      "off": 1521,
      "rz": 1522,
      "ral": 1523,
      "rid": 1524,
      "ures": 1525,
      "zog": 1526,
      "ink": 1527,
      "ining": 1528,
      "Ġsk": 1529,
      "Ġsch": 1530,
      "Ġcreat": 1531,
      "Ġfoot": 1532,
      "arch": 1533,
      "Ġmask": 1534,
      "omb": 1535,
      "oman": 1536,
      "olog": 1537,
      "olved": 1538,
      "herzog": 1539,
      "ĠErz": 1540,
      "ement": 1541,
      "Ġanother": 1542,
      "193": 1543,
      "hile": 1544,
      "ored": 1545,
      "Ġritu": 1546,
      "hips": 1547,
      "ording": 1548,
      "Ġplayer": 1549,
      "tend": 1550,
      "ĠAmun": 1551,
      "Ġmajor": 1552,
      "Ġsystem": 1553,
      "Ġtemples": 1554,
      "Ġestab": 1555,
      "Ġlocal": 1556,
      "Ġhistory": 1557,
      "ĠFairies": 1558,
      "Ġfamily": 1559,
      "Ġcareer": 1560,
      "ĠErzherzog": 1561,
      "din": 1562,
      "ford": 1563,
      "ged": 1564,
      "io": 1565,
      "ner": 1566,
      "ym": 1567,
      "ination": 1568,
      "Ġset": 1569,
      "orld": 1570,
      "Ġcer": 1571,
      "Ġdest": 1572,
      "Ġdue": 1573,
      "Ġmm": 1574,
      "roop": 1575,
      "Ġgrou": 1576,
      "ĠSp": 1577,
      "ĠSome": 1578,
      "ird": 1579,
      "Ġlim": 1580,
      "ives": 1581,
      "odies": 1582,
      "Ġdeal": 1583,
      "cted": 1584,
      "ided": 1585,
      "une": 1586,
      "ĠGre": 1587,
      "ĠGam": 1588,
      "ĠFeb": 1589,
      "empt": 1590,
      "ague": 1591,
      "Ġprot": 1592,
      "abor": 1593,
      "Ġnear": 1594,
      "Ġvar": 1595,
      "ruary": 1596,
      "Ġarsenal": 1597,
      "Ġperiod": 1598,
      "ove": 1599,
      "Ġcompet": 1600,
      "Ġresp": 1601,
      "Ġcover": 1602,
      "Ġcarb": 1603,
      "ĠAmeric": 1604,
      "Ġreligion": 1605,
      "Ġreligious": 1606,
      "Ġknown": 1607,
      "Ġlarge": 1608,
      "Ġactivities": 1609,
      "Ġinflu": 1610,
      "Ġdifferent": 1611,
      "ĠFebruary": 1612,
      "24": 1613,
      "ball": 1614,
      "dn": 1615,
      "ful": 1616,
      "ient": 1617,
      "line": 1618,
      "ne": 1619,
      "rant": 1620,
      "son": 1621,
      "sion": 1622,
      "til": 1623,
      "ual": 1624,
      "uary": 1625,
      "ven": 1626,
      "Ġround": 1627,
      "Ġway": 1628,
      "Ġcame": 1629,
      "Ġcivil": 1630,
      "Ġfel": 1631,
      "Ġfilm": 1632,
      "Ġinch": 1633,
      "ales": 1634,
      "Ġbo": 1635,
      "Ġbased": 1636,
      "Ġmuch": 1637,
      "ices": 1638,
      "Ġgrow": 1639,
      "ĠAp": 1640,
      "Ġthird": 1641,
      "aces": 1642,
      "ently": 1643,
      "Ġlist": 1644,
      "Ġlight": 1645,
      "ĠComm": 1646,
      "Ġel": 1647,
      "ĠBut": 1648,
      "Ġstr": 1649,
      "Ġstat": 1650,
      "Ġstated": 1651,
      "ute": 1652,
      "ĠGo": 1653,
      "umm": 1654,
      "Ġallow": 1655,
      "ĠWhile": 1656,
      "ĠWorld": 1657,
      "ĠLight": 1658,
      "Ġplan": 1659,
      "Ġhead": 1660,
      "aps": 1661,
      "Ġtrade": 1662,
      "ograph": 1663,
      "Ġgovern": 1664,
      "Ġappear": 1665,
      "Ġguns": 1666,
      "Ġreview": 1667,
      "Ġpublic": 1668,
      "ĠMax": 1669,
      "embers": 1670,
      "ĠItalian": 1671,
      "ĠGambia": 1672,
      "Ġcarbon": 1673,
      "II": 1674,
      "SA": 1675,
      "don": 1676,
      "fic": 1677,
      "ool": 1678,
      "try": 1679,
      "xts": 1680,
      "Ġtake": 1681,
      "Ġauthor": 1682,
      "Ġsix": 1683,
      "orus": 1684,
      "ither": 1685,
      "Ġfun": 1686,
      "Ġfoc": 1687,
      "Ġfore": 1688,
      "alf": 1689,
      "Ġband": 1690,
      "Ġmiss": 1691,
      "Ġmake": 1692,
      "Ġhand": 1693,
      "Ġthose": 1694,
      "ĠSc": 1695,
      "ĠSen": 1696,
      "Ġlic": 1697,
      "Ġnames": 1698,
      "ĠCar": 1699,
      "ĠCan": 1700,
      "ĠCal": 1701,
      "Ġstud": 1702,
      "ĠFer": 1703,
      "Ġshot": 1704,
      "Ġuntil": 1705,
      "Ġlevel": 1706,
      "ize": 1707,
      "Ġuse": 1708,
      "ĠUnion": 1709,
      "Ġevents": 1710,
      "Ġdisc": 1711,
      "Ġhumans": 1712,
      "Ġtraining": 1713,
      "space": 1714,
      "Ġcontract": 1715,
      "ĠBuilding": 1716,
      "roops": 1717,
      "Ġcarbonaria": 1718,
      "MS": 1719,
      "az": 1720,
      "ger": 1721,
      "ior": 1722,
      "ve": 1723,
      "ves": 1724,
      "ying": 1725,
      "ãĤ": 1726,
      "Ġtw": 1727,
      "Ġtroops": 1728,
      "Ġsister": 1729,
      "ator": 1730,
      "oring": 1731,
      "Ġfruit": 1732,
      "Ġbreak": 1733,
      "Ġpost": 1734,
      "Ġden": 1735,
      "Ġmembers": 1736,
      "Ġhour": 1737,
      "Ġref": 1738,
      "ĠAviation": 1739,
      "ached": 1740,
      "Ġless": 1741,
      "Ġnamed": 1742,
      "Ġever": 1743,
      "Ġbeh": 1744,
      "ĠHorus": 1745,
      "ĠFor": 1746,
      "ĠEu": 1747,
      "ript": 1748,
      "ĠDuring": 1749,
      "ĠJan": 1750,
      "ĠJames": 1751,
      "quad": 1752,
      "app": 1753,
      "Ġneed": 1754,
      "Ġworship": 1755,
      "ockey": 1756,
      "ĠStates": 1757,
      "ploy": 1758,
      "Ġappro": 1759,
      "Ġaddition": 1760,
      "Ġinclude": 1761,
      "Ġrepresented": 1762,
      "Ġattempt": 1763,
      "Ġdesigned": 1764,
      "ranch": 1765,
      "ĠIII": 1766,
      "Ġreleased": 1767,
      "Ġconsidered": 1768,
      "dinand": 1769,
      "ficult": 1770,
      "Ġfocus": 1771,
      "ĠFerdinand": 1772,
      "23": 1773,
      "88": 1774,
      "ai": 1775,
      "eor": 1776,
      "get": 1777,
      "ks": 1778,
      "par": 1779,
      "sel": 1780,
      "yp": 1781,
      "ys": 1782,
      "ãĥ": 1783,
      "Ġ$": 1784,
      "Ġ[": 1785,
      "Ġ]": 1786,
      "Ġed": 1787,
      "Ġiron": 1788,
      "Ġsent": 1789,
      "Ġsun": 1790,
      "Ġsince": 1791,
      "Ġcup": 1792,
      "Ġfle": 1793,
      "Ġfranch": 1794,
      "ara": 1795,
      "arl": 1796,
      "Ġpass": 1797,
      "Ġpeople": 1798,
      "Ġdraft": 1799,
      "Ġmult": 1800,
      "Ġmother": 1801,
      "Ġmusic": 1802,
      "rodu": 1803,
      "roll": 1804,
      "ĠSMS": 1805,
      "Ġnature": 1806,
      "Ġeff": 1807,
      "ott": 1808,
      "olo": 1809,
      "Ġdeath": 1810,
      "ident": 1811,
      "ĠPh": 1812,
      "ĠPr": 1813,
      "ĠEd": 1814,
      "ĠDes": 1815,
      "Ġsugg": 1816,
      "Ġprof": 1817,
      "itions": 1818,
      "Ġkm": 1819,
      "184": 1820,
      "Ġtexts": 1821,
      "Ġothers": 1822,
      "Ġtheme": 1823,
      "Ġforms": 1824,
      "Ġprivate": 1825,
      "posed": 1826,
      "ways": 1827,
      "Ġfeat": 1828,
      "Ġspecific": 1829,
      "Ġmaat": 1830,
      "Ġdifficult": 1831,
      "Ġbelief": 1832,
      "Ġmonth": 1833,
      "Ġblock": 1834,
      "Ġcontinued": 1835,
      "Ġofficial": 1836,
      "ĠEng": 1837,
      "Ġfungus": 1838,
      "ĠAssociation": 1839,
      "ombard": 1840,
      "Ġprotect": 1841,
      "ĠAmerican": 1842,
      "Ġfranchise": 1843,
      "Ġsuggest": 1844,
      "cy": 1845,
      "cer": 1846,
      "pite": 1847,
      "ram": 1848,
      "tles": 1849,
      "Ġri": 1850,
      "Ġif": 1851,
      "Ġide": 1852,
      "Ġturn": 1853,
      "Ġtimes": 1854,
      "Ġaway": 1855,
      "ont": 1856,
      "Ġold": 1857,
      "Ġocc": 1858,
      "Ġsim": 1859,
      "Ġcult": 1860,
      "Ġft": 1861,
      "Ġfive": 1862,
      "Ġfire": 1863,
      "Ġfree": 1864,
      "Ġinstr": 1865,
      "ances": 1866,
      "Ġbas": 1867,
      "Ġbus": 1868,
      "Ġbest": 1869,
      "Ġpra": 1870,
      "Ġpri": 1871,
      "Ġmen": 1872,
      "rope": 1873,
      "roph": 1874,
      "Ġhome": 1875,
      "ĠAnd": 1876,
      "ention": 1877,
      "Ġland": 1878,
      "Ġlate": 1879,
      "Ġnow": 1880,
      "ĠCare": 1881,
      "Ġbeg": 1882,
      "ĠMan": 1883,
      "ĠMost": 1884,
      "ĠHer": 1885,
      "ĠHowever": 1886,
      "Ġste": 1887,
      "Ġstory": 1888,
      "ĠGener": 1889,
      "ĠNational": 1890,
      "196": 1891,
      "ĠWith": 1892,
      "ĠWhen": 1893,
      "ately": 1894,
      "ĠJune": 1895,
      "Ġairspace": 1896,
      "ĠâĢĻ": 1897,
      "ĠUS": 1898,
      "illion": 1899,
      "Ġoutside": 1900,
      "Ġfeet": 1901,
      "ixed": 1902,
      "Ġcarried": 1903,
      "Ġcharacters": 1904,
      "Ġthroughout": 1905,
      "Ġsigned": 1906,
      "Ġsignific": 1907,
      "useum": 1908,
      "Ġappeared": 1909,
      "Ġremained": 1910,
      "Ġestim": 1911,
      "Ġbattle": 1912,
      "ĠAlthough": 1913,
      "Ġproduced": 1914,
      "Ġqual": 1915,
      "Ġpurpos": 1916,
      "Ġrequired": 1917,
      "Ġleading": 1918,
      "ĠConf": 1919,
      "ĠIsis": 1920,
      "Ġloss": 1921,
      "Ġpopular": 1922,
      "cret": 1923,
      "Ġfootball": 1924,
      "Ġrituals": 1925,
      "Ġestablished": 1926,
      "ology": 1927,
      "Ġinstrum": 1928,
      "ĠGeneral": 1929,
      "16": 1930,
      "25": 1931,
      "FA": 1932,
      "co": 1933,
      "ched": 1934,
      "gress": 1935,
      "ki": 1936,
      "ken": 1937,
      "med": 1938,
      "ness": 1939,
      "self": 1940,
      "ĠÂ": 1941,
      "Ġer": 1942,
      "Ġtit": 1943,
      "Ġav": 1944,
      "Ġsold": 1945,
      "Ġsouth": 1946,
      "att": 1947,
      "iter": 1948,
      "ites": 1949,
      "Ġcm": 1950,
      "Ġcor": 1951,
      "Ġcru": 1952,
      "Ġinj": 1953,
      "Ġpain": 1954,
      "Ġpred": 1955,
      "Ġdi": 1956,
      "Ġmat": 1957,
      "Ġmic": 1958,
      "Ġhalf": 1959,
      "ĠSav": 1960,
      "ential": 1961,
      "irc": 1962,
      "Ġnav": 1963,
      "ĠCroy": 1964,
      "ĠClub": 1965,
      "ĠBook": 1966,
      "urther": 1967,
      "eless": 1968,
      "Ġstill": 1969,
      "ĠGall": 1970,
      "ĠPlay": 1971,
      "ĠRich": 1972,
      "ĠRiver": 1973,
      "ĠRoman": 1974,
      "ĠNash": 1975,
      "Ġcondu": 1976,
      "ists": 1977,
      "Ġanim": 1978,
      "195": 1979,
      "aving": 1980,
      "pend": 1981,
      "Ġsector": 1982,
      "Ġsuff": 1983,
      "lustr": 1984,
      "Ġheld": 1985,
      "Ġairfield": 1986,
      "Ġairports": 1987,
      "Ġnever": 1988,
      "Ġnext": 1989,
      "ĠOs": 1990,
      "Ġkings": 1991,
      "ustry": 1992,
      "Ġcontrol": 1993,
      "Ġcommun": 1994,
      "Ġclose": 1995,
      "play": 1996,
      "Ġroles": 1997,
      "Ġoffer": 1998,
      "Ġrelations": 1999,
      "Ġresult": 2000,
      "Ġprim": 2001,
      "Ġadv": 2002,
      "Ġflight": 2003,
      "Ġbecom": 2004,
      "Ġfinal": 2005,
      "Ġnoise": 2006,
      "Ġweap": 2007,
      "Ġcreation": 2008,
      "istics": 2009,
      "Ġsurround": 2010,
      "Ġposition": 2011,
      "ĠCAT": 2012,
      "Ġreturned": 2013,
      "Ġbattles": 2014,
      "Ġrelease": 2015,
      "Ġinvolved": 2016,
      "Ġwritten": 2017,
      "Ġstruck": 2018,
      "ĠChristian": 2019,
      "Ġelements": 2020,
      "ĠIndia": 2021,
      "Ġmaskray": 2022,
      "Ġgroup": 2023,
      "Ġlimited": 2024,
      "dnance": 2025,
      "Ġfelt": 2026,
      "ĠEurope": 2027,
      "ĠJanuary": 2028,
      "ĠCarey": 2029,
      "ĠConfeder": 2030,
      "ĠCroydon": 2031,
      "Ġconducted": 2032,
      "11": 2033,
      "ASA": 2034,
      "bo": 2035,
      "but": 2036,
      "bodies": 2037,
      "cing": 2038,
      "gor": 2039,
      "iber": 2040,
      "oad": 2041,
      "por": 2042,
      "tic": 2043,
      "Ġ-": 2044,
      "Ġil": 2045,
      "Ġsky": 2046,
      "atters": 2047,
      "Ġcity": 2048,
      "Ġclub": 2049,
      "Ġcirc": 2050,
      "Ġfather": 2051,
      "ense": 2052,
      "Ġinit": 2053,
      "ingal": 2054,
      "Ġpick": 2055,
      "Ġpound": 2056,
      "Ġmor": 2057,
      "Ġtop": 2058,
      "Ġrestr": 2059,
      "ĠAug": 2060,
      "ĠSu": 2061,
      "ĠSan": 2062,
      "ilar": 2063,
      "ilver": 2064,
      "ilities": 2065,
      "Ġla": 2066,
      "Ġline": 2067,
      "stru": 2068,
      "ote": 2069,
      "ĠBat": 2070,
      "Ġdev": 2071,
      "Ġdeter": 2072,
      "ĠMc": 2073,
      "ĠMint": 2074,
      "owled": 2075,
      "ulation": 2076,
      "ĠGot": 2077,
      "ĠPer": 2078,
      "ĠPeng": 2079,
      "ĠNam": 2080,
      "ĠNorth": 2081,
      "ĠEASA": 2082,
      "Ġorgan": 2083,
      "Ġarea": 2084,
      "Ġchang": 2085,
      "akes": 2086,
      "Ġrange": 2087,
      "ĠChild": 2088,
      "Ġinches": 2089,
      "Ġplayers": 2090,
      "Ġintrodu": 2091,
      "Ġaction": 2092,
      "Ġimages": 2093,
      "Ġoperation": 2094,
      "Ġgoals": 2095,
      "Ġincluded": 2096,
      "umbers": 2097,
      "Ġsym": 2098,
      "Ġrecorded": 2099,
      "Ġindic": 2100,
      "Ġindustry": 2101,
      "Ġdeveloped": 2102,
      "Ġgiving": 2103,
      "Ġtemple": 2104,
      "Ġacross": 2105,
      "Ġaerodrome": 2106,
      "Ġstarted": 2107,
      "Ġpublished": 2108,
      "Ġgeneral": 2109,
      "Ġcountry": 2110,
      "Ġincreas": 2111,
      "Ġsometimes": 2112,
      "Ġcertain": 2113,
      "Ġstrong": 2114,
      "ĠLightning": 2115,
      "Ġrif": 2116,
      "Ġbusiness": 2117,
      "Ġpraised": 2118,
      "Ġsignificant": 2119,
      "Ġavail": 2120,
      "Ġillustr": 2121,
      "ĠAugust": 2122,
      "ĠPengu": 2123,
      "14": 2124,
      "22": 2125,
      "50": 2126,
      "aus": 2127,
      "bol": 2128,
      "ead": 2129,
      "ober": 2130,
      "ply": 2131,
      "ril": 2132,
      "work": 2133,
      "hest": 2134,
      "Ġslow": 2135,
      "itive": 2136,
      "Ġcas": 2137,
      "Ġfem": 2138,
      "Ġfull": 2139,
      "Ġfurther": 2140,
      "Ġpar": 2141,
      "Ġput": 2142,
      "Ġdam": 2143,
      "icted": 2144,
      "Ġhold": 2145,
      "Ġhowever": 2146,
      "ĠTo": 2147,
      "Ġrepl": 2148,
      "Ġrefer": 2149,
      "ĠAb": 2150,
      "ĠAer": 2151,
      "Ġthough": 2152,
      "Ġthought": 2153,
      "ĠSch": 2154,
      "ĠSociety": 2155,
      "iris": 2156,
      "Ġlow": 2157,
      "Ġnumbers": 2158,
      "Ġep": 2159,
      "Ġeither": 2160,
      "Ġforce": 2161,
      "Ġforces": 2162,
      "ots": 2163,
      "Ġaspect": 2164,
      "Ġonce": 2165,
      "ctions": 2166,
      "Ġwithout": 2167,
      "ural": 2168,
      "urren": 2169,
      "els": 2170,
      "ides": 2171,
      "idence": 2172,
      "ĠMac": 2173,
      "ĠPilot": 2174,
      "eman": 2175,
      "ifest": 2176,
      "ĠWh": 2177,
      "ĠWay": 2178,
      "ained": 2179,
      "Ġrun": 2180,
      "Ġexist": 2181,
      "Ġexper": 2182,
      "Ġexamp": 2183,
      "ĠOr": 2184,
      "Ġvis": 2185,
      "Ġyoun": 2186,
      "ffic": 2187,
      "Ġshell": 2188,
      "Ġimp": 2189,
      "Ġusing": 2190,
      "Ġformer": 2191,
      "Ġscoring": 2192,
      "ĠUnivers": 2193,
      "Ġworks": 2194,
      "Ġflights": 2195,
      "Ġbecome": 2196,
      "ĠReg": 2197,
      "Ġobject": 2198,
      "Ġearl": 2199,
      "Ġaccording": 2200,
      "Ġamong": 2201,
      "annah": 2202,
      "Ġattack": 2203,
      "Ġpoint": 2204,
      "Ġmaintain": 2205,
      "Ġemer": 2206,
      "Ġoriginally": 2207,
      "Ġblack": 2208,
      "Ġlarger": 2209,
      "Ġperformed": 2210,
      "Ġperformance": 2211,
      "ĠYork": 2212,
      "Ġphara": 2213,
      "Ġpurch": 2214,
      "Ġpoly": 2215,
      "Ġissue": 2216,
      "Ġobservatory": 2217,
      "Ġterms": 2218,
      "Ġchildren": 2219,
      "Ġhelp": 2220,
      "ridge": 2221,
      "Ġschool": 2222,
      "Ġcreator": 2223,
      "Ġplanning": 2224,
      "Ġbehind": 2225,
      "selves": 2226,
      "Ġfleet": 2227,
      "rolled": 2228,
      "Ġbegin": 2229,
      "ĠSavannah": 2230,
      "Ġairfields": 2231,
      "ĠOsiris": 2232,
      "ĠNameless": 2233,
      "ĠPenguins": 2234,
      "Ġyoung": 2235,
      "28": 2236,
      "aff": 2237,
      "br": 2238,
      "cient": 2239,
      "eter": 2240,
      "ground": 2241,
      "ha": 2242,
      "haw": 2243,
      "iers": 2244,
      "less": 2245,
      "lish": 2246,
      "ms": 2247,
      "mon": 2248,
      "national": 2249,
      "nought": 2250,
      "phi": 2251,
      "tt": 2252,
      "yn": 2253,
      "Ġes": 2254,
      "Ġaff": 2255,
      "inations": 2256,
      "ery": 2257,
      "Ġself": 2258,
      "Ġsociety": 2259,
      "Ġsize": 2260,
      "ats": 2261,
      "itar": 2262,
      "itted": 2263,
      "itors": 2264,
      "Ġcoll": 2265,
      "Ġfar": 2266,
      "enced": 2267,
      "ences": 2268,
      "ency": 2269,
      "aning": 2270,
      "Ġball": 2271,
      "ingly": 2272,
      "Ġpres": 2273,
      "Ġdread": 2274,
      "Ġmar": 2275,
      "Ġmid": 2276,
      "Ġmark": 2277,
      "ically": 2278,
      "ĠTe": 2279,
      "ĠTwo": 2280,
      "Ġrest": 2281,
      "ley": 2282,
      "ĠAten": 2283,
      "Ġthings": 2284,
      "ĠSri": 2285,
      "omp": 2286,
      "acing": 2287,
      "Ġlives": 2288,
      "ĠCo": 2289,
      "ĠCro": 2290,
      "ĠCivil": 2291,
      "iving": 2292,
      "ody": 2293,
      "ĠBC": 2294,
      "ĠBy": 2295,
      "urt": 2296,
      "urning": 2297,
      "ussion": 2298,
      "ĠHist": 2299,
      "ĠHockey": 2300,
      "ulted": 2301,
      "Ġstreak": 2302,
      "ĠGeor": 2303,
      "ĠPar": 2304,
      "ĠFl": 2305,
      "ĠFingal": 2306,
      "thur": 2307,
      "Ġconf": 2308,
      "ĠEx": 2309,
      "riend": 2310,
      "ocal": 2311,
      "ĠLong": 2312,
      "ĠLank": 2313,
      "Ġplain": 2314,
      "ĠJap": 2315,
      "Ġprocess": 2316,
      "aken": 2317,
      "que": 2318,
      "ially": 2319,
      "Ġexc": 2320,
      "Ġextend": 2321,
      "ĠKh": 2322,
      "ĠState": 2323,
      "Ġplayoff": 2324,
      "Ġclock": 2325,
      "ĠArm": 2326,
      "Ġdespite": 2327,
      "Ġthemselves": 2328,
      "Ġimpro": 2329,
      "Ġabove": 2330,
      "Ġspeed": 2331,
      "cona": 2332,
      "Ġbuild": 2333,
      "Ġpract": 2334,
      "aterial": 2335,
      "iple": 2336,
      "Ġinteract": 2337,
      "Ġinternational": 2338,
      "Ġjoin": 2339,
      "Ġfew": 2340,
      "ification": 2341,
      "ĠAncona": 2342,
      "Ġsyn": 2343,
      "Ġarms": 2344,
      "ception": 2345,
      "Ġmoved": 2346,
      "Ġaccept": 2347,
      "Ġcrew": 2348,
      "Ġposs": 2349,
      "Ġsongs": 2350,
      "Ġpersonal": 2351,
      "Ġmetres": 2352,
      "Ġsubject": 2353,
      "Ġgoddesses": 2354,
      "Ġstandards": 2355,
      "Ġcomplex": 2356,
      "ederal": 2357,
      "Ġconnected": 2358,
      "Ġtraditional": 2359,
      "Ġdestroy": 2360,
      "Ġvarious": 2361,
      "Ġinfluence": 2362,
      "Ġgrowth": 2363,
      "ĠGovern": 2364,
      "Ġallowed": 2365,
      "Ġforeign": 2366,
      "Ġlicens": 2367,
      "Ġhours": 2368,
      "Ġevery": 2369,
      "ĠPrivate": 2370,
      "Ġpurposes": 2371,
      "Ġmicrol": 2372,
      "ĠSanford": 2373,
      "owledge": 2374,
      "Ġsymbol": 2375,
      "phia": 2376,
      "Ġdreadnought": 2377,
      "ĠJapan": 2378,
      "21": 2379,
      "500": 2380,
      "IFA": 2381,
      "ax": 2382,
      "dle": 2383,
      "eg": 2384,
      "fact": 2385,
      "ik": 2386,
      "ked": 2387,
      "ling": 2388,
      "lock": 2389,
      "oom": 2390,
      "ris": 2391,
      "rack": 2392,
      "rill": 2393,
      "ule": 2394,
      "xis": 2395,
      "xim": 2396,
      "yl": 2397,
      "yxis": 2398,
      "ĠX": 2399,
      "Ġly": 2400,
      "Ġtri": 2401,
      "Ġtyp": 2402,
      "heistic": 2403,
      "ert": 2404,
      "Ġoil": 2405,
      "Ġwant": 2406,
      "Ġsquad": 2407,
      "atter": 2408,
      "Ġcap": 2409,
      "Ġcour": 2410,
      "Ġfac": 2411,
      "Ġfav": 2412,
      "Ġflow": 2413,
      "ened": 2414,
      "Ġben": 2415,
      "Ġbook": 2416,
      "Ġpen": 2417,
      "Ġpol": 2418,
      "Ġdra": 2419,
      "Ġmag": 2420,
      "Ġmaking": 2421,
      "Ġmillion": 2422,
      "Ġmaterial": 2423,
      "Ġgr": 2424,
      "Ġhow": 2425,
      "Ġhost": 2426,
      "Ġren": 2427,
      "Ġreached": 2428,
      "ĠSim": 2429,
      "irl": 2430,
      "Ġlack": 2431,
      "Ġlink": 2432,
      "Ġlabor": 2433,
      "Ġnation": 2434,
      "ament": 2435,
      "ĠCup": 2436,
      "Ġecon": 2437,
      "adel": 2438,
      "olars": 2439,
      "Ġdecl": 2440,
      "Ġdebut": 2441,
      "ĠIts": 2442,
      "urch": 2443,
      "ĠMem": 2444,
      "ĠMason": 2445,
      "ĠMarch": 2446,
      "ĠMuseum": 2447,
      "ĠHow": 2448,
      "Ġstaff": 2449,
      "ĠGu": 2450,
      "ĠGeop": 2451,
      "Ġalways": 2452,
      "ĠPope": 2453,
      "ĠPatters": 2454,
      "ĠFred": 2455,
      "ĠFran": 2456,
      "ĠFIFA": 2457,
      "ements": 2458,
      "emble": 2459,
      "pted": 2460,
      "197": 2461,
      "ĠLic": 2462,
      "Ġseven": 2463,
      "Ġsepar": 2464,
      "ĠDiv": 2465,
      "Ġordnance": 2466,
      "Ġsuper": 2467,
      "sequ": 2468,
      "Ġrul": 2469,
      "Ġrum": 2470,
      "Ġnoted": 2471,
      "Ġvide": 2472,
      "Ġking": 2473,
      "ĠVatic": 2474,
      "ĠChar": 2475,
      "189": 2476,
      "Ġshow": 2477,
      "Ġshort": 2478,
      "Ġperc": 2479,
      "Ġtele": 2480,
      "ĠStar": 2481,
      "Ġplaying": 2482,
      "astic": 2483,
      "Ġmanifest": 2484,
      "Ġgameplay": 2485,
      "Ġrecre": 2486,
      "Ġenv": 2487,
      "Ġroad": 2488,
      "Ġoverall": 2489,
      "Ġscored": 2490,
      "Ġadd": 2491,
      "Ġevent": 2492,
      "ĠRec": 2493,
      "ĠReign": 2494,
      "Ġconsisted": 2495,
      "Ġfinally": 2496,
      "ictions": 2497,
      "Ġaccess": 2498,
      "Ġtransfer": 2499,
      "Ġmove": 2500,
      "ampions": 2501,
      "Ġserved": 2502,
      "Ġcreated": 2503,
      "Ġmonitors": 2504,
      "Ġparticip": 2505,
      "Ġengine": 2506,
      "clad": 2507,
      "Ġminor": 2508,
      "Ġbrother": 2509,
      "Ġactivity": 2510,
      "Ġdistribut": 2511,
      "Ġgenerally": 2512,
      "Ġrare": 2513,
      "Ġgliders": 2514,
      "Ġparticularly": 2515,
      "Ġsuccessful": 2516,
      "Ġgreater": 2517,
      "issioned": 2518,
      "Ġprovided": 2519,
      "Ġcombined": 2520,
      "Ġopening": 2521,
      "Ġcompetition": 2522,
      "ĠApril": 2523,
      "ography": 2524,
      "ĠCarter": 2525,
      "Ġironclad": 2526,
      "Ġprofess": 2527,
      "ĠAndrew": 2528,
      "Ġestimated": 2529,
      "Ġcruis": 2530,
      "Ġnaval": 2531,
      "Ġsurrounding": 2532,
      "ĠConfederate": 2533,
      "ĠBattle": 2534,
      "Ġdeterm": 2535,
      "Ġavailable": 2536,
      "Ġpharaoh": 2537,
      "Ġeconom": 2538,
      "adelphia": 2539,
      "ĠGeopyxis": 2540,
      "ĠPatterson": 2541,
      "Ġvideo": 2542,
      "ĠVatican": 2543,
      "100": 2544,
      "30": 2545,
      "45": 2546,
      "Ar": 2547,
      "St": 2548,
      "ae": 2549,
      "aim": 2550,
      "aired": 2551,
      "ca": 2552,
      "den": 2553,
      "eal": 2554,
      "fe": 2555,
      "lan": 2556,
      "ns": 2557,
      "oon": 2558,
      "ole": 2559,
      "och": 2560,
      "ores": 2561,
      "ving": 2562,
      "vey": 2563,
      "yle": 2564,
      "Ġ&": 2565,
      "ĠQ": 2566,
      "Ġtre": 2567,
      "inct": 2568,
      "inition": 2569,
      "inder": 2570,
      "erick": 2571,
      "Ġwon": 2572,
      "Ġwro": 2573,
      "Ġwall": 2574,
      "Ġwater": 2575,
      "Ġwife": 2576,
      "Ġsac": 2577,
      "Ġsitu": 2578,
      "Ġsilver": 2579,
      "oric": 2580,
      "ories": 2581,
      "orpor": 2582,
      "itte": 2583,
      "ese": 2584,
      "Ġcred": 2585,
      "Ġcaus": 2586,
      "Ġfans": 2587,
      "Ġfixed": 2588,
      "Ġfriend": 2589,
      "anced": 2590,
      "Ġbase": 2591,
      "Ġbombard": 2592,
      "asy": 2593,
      "Ġtoo": 2594,
      "Ġgen": 2595,
      "Ġground": 2596,
      "Ġhig": 2597,
      "Ġhouse": 2598,
      "ĠTre": 2599,
      "ĠTot": 2600,
      "Ġthreat": 2601,
      "ĠSa": 2602,
      "ĠSl": 2603,
      "acre": 2604,
      "acles": 2605,
      "Ġlittle": 2606,
      "ster": 2607,
      "stant": 2608,
      "ĠCl": 2609,
      "ivid": 2610,
      "ĠBar": 2611,
      "ĠBull": 2612,
      "Ġones": 2613,
      "Ġdel": 2614,
      "ĠIm": 2615,
      "urre": 2616,
      "eling": 2617,
      "ĠMed": 2618,
      "ĠMiss": 2619,
      "ĠHis": 2620,
      "iest": 2621,
      "ĠGl": 2622,
      "rand": 2623,
      "ĠPol": 2624,
      "ĠPres": 2625,
      "throp": 2626,
      "Ġconver": 2627,
      "Ġconcept": 2628,
      "Ġconstru": 2629,
      "ĠEach": 2630,
      "cht": 2631,
      "ptember": 2632,
      "osm": 2633,
      "Ġseen": 2634,
      "ĠDraft": 2635,
      "essential": 2636,
      "hib": 2637,
      "Ġplaced": 2638,
      "Ġhelic": 2639,
      "Ġheavy": 2640,
      "Ġproposed": 2641,
      "quel": 2642,
      "abit": 2643,
      "ably": 2644,
      "aper": 2645,
      "Ġnecess": 2646,
      "ĠKings": 2647,
      "ĠKarl": 2648,
      "ĠOld": 2649,
      "Ġvict": 2650,
      "Ġkg": 2651,
      "Ġarg": 2652,
      "188": 2653,
      "Ġshif": 2654,
      "Ġperm": 2655,
      "Ġcontrolled": 2656,
      "Ġunivers": 2657,
      "ills": 2658,
      "Ġleg": 2659,
      "Ġleft": 2660,
      "Ġclosed": 2661,
      "ĠArt": 2662,
      "Ġthemed": 2663,
      "Ġusually": 2664,
      "Ġformed": 2665,
      "aching": 2666,
      "Ġregion": 2667,
      "Ġregister": 2668,
      "ount": 2669,
      "tender": 2670,
      "Ġworked": 2671,
      "Ġupon": 2672,
      "Ġflo": 2673,
      "Ġinterv": 2674,
      "Ġmostly": 2675,
      "Ġmeans": 2676,
      "Ġmeaning": 2677,
      "Ġassign": 2678,
      "Ġnewly": 2679,
      "Ġconsist": 2680,
      "Ġspecial": 2681,
      "Ġearth": 2682,
      "ĠSeptember": 2683,
      "ĠBlood": 2684,
      "Ġindivid": 2685,
      "Ġarmor": 2686,
      "Ġhimself": 2687,
      "Ġoppos": 2688,
      "Ġacqu": 2689,
      "Ġservices": 2690,
      "Ġemploy": 2691,
      "Ġlocated": 2692,
      "Ġengaged": 2693,
      "Ġdefens": 2694,
      "Ġcontinue": 2695,
      "ĠLeague": 2696,
      "ended": 2697,
      "aptain": 2698,
      "ĠAircraft": 2699,
      "Ġofficers": 2700,
      "Ġmyths": 2701,
      "Ġglider": 2702,
      "Ġgliding": 2703,
      "Ġregulation": 2704,
      "Ġlosing": 2705,
      "ãģ®": 2706,
      "Ġpatron": 2707,
      "Ġpattern": 2708,
      "Ġcaliber": 2709,
      "Ġdirect": 2710,
      "Ġequip": 2711,
      "Ġgoaltender": 2712,
      "Ġnearly": 2713,
      "Ġrespons": 2714,
      "Ġappearance": 2715,
      "Ġmissions": 2716,
      "Ġfruitbodies": 2717,
      "Ġeffort": 2718,
      "Ġblockade": 2719,
      "Ġsimilar": 2720,
      "Ġprior": 2721,
      "ĠPlaySt": 2722,
      "Ġofferings": 2723,
      "Ġweapons": 2724,
      "Ġbattleships": 2725,
      "ĠEuropean": 2726,
      "Ġrifles": 2727,
      "ĠMacAr": 2728,
      "Ġexample": 2729,
      "Ġbeginning": 2730,
      "ĠGeorg": 2731,
      "ĠLongacre": 2732,
      "ĠArmy": 2733,
      "Ġtypes": 2734,
      "Ġfavor": 2735,
      "ĠFrederick": 2736,
      "Ġrumors": 2737,
      "Ġrecreational": 2738,
      "Ġprofessional": 2739,
      "Ġwrote": 2740,
      "ittee": 2741,
      "Ġhelicop": 2742,
      "ĠPlayStation": 2743,
      "ĠMacArthur": 2744,
      "26": 2745,
      "38": 2746,
      "71": 2747,
      "Kay": 2748,
      "aos": 2749,
      "bur": 2750,
      "com": 2751,
      "day": 2752,
      "eff": 2753,
      "ga": 2754,
      "hing": 2755,
      "ii": 2756,
      "iate": 2757,
      "ience": 2758,
      "me": 2759,
      "mun": 2760,
      "nall": 2761,
      "ping": 2762,
      "uc": 2763,
      "uck": 2764,
      "ufact": 2765,
      "well": 2766,
      "worth": 2767,
      "ze": 2768,
      "ÃĨ": 2769,
      "Ġessential": 2770,
      "ĠÃĨ": 2771,
      "Ġtied": 2772,
      "here": 2773,
      "hetic": 2774,
      "Ġaward": 2775,
      "ina": 2776,
      "inc": 2777,
      "onal": 2778,
      "reed": 2779,
      "Ġwing": 2780,
      "Ġwide": 2781,
      "Ġsays": 2782,
      "ata": 2783,
      "atis": 2784,
      "atural": 2785,
      "orial": 2786,
      "oroth": 2787,
      "ital": 2788,
      "itable": 2789,
      "estern": 2790,
      "Ġcle": 2791,
      "Ġcul": 2792,
      "Ġcamp": 2793,
      "Ġcosm": 2794,
      "Ġfal": 2795,
      "Ġfif": 2796,
      "Ġfron": 2797,
      "Ġfact": 2798,
      "Ġfired": 2799,
      "Ġfail": 2800,
      "arc": 2801,
      "any": 2802,
      "Ġba": 2803,
      "Ġbon": 2804,
      "Ġbri": 2805,
      "Ġbrou": 2806,
      "Ġbill": 2807,
      "Ġdon": 2808,
      "Ġdays": 2809,
      "Ġmer": 2810,
      "Ġmed": 2811,
      "Ġmus": 2812,
      "Ġmight": 2813,
      "Ġmust": 2814,
      "Ġtot": 2815,
      "Ġgive": 2816,
      "Ġgave": 2817,
      "Ġgrant": 2818,
      "Ġhor": 2819,
      "Ġhapp": 2820,
      "Ġhaving": 2821,
      "ĠTr": 2822,
      "ĠTor": 2823,
      "Ġreason": 2824,
      "Ġredu": 2825,
      "ĠAf": 2826,
      "ĠAcc": 2827,
      "ĠSer": 2828,
      "ĠSet": 2829,
      "omin": 2830,
      "omination": 2831,
      "Ġlay": 2832,
      "Ġlif": 2833,
      "Ġnorth": 2834,
      "sthetic": 2835,
      "ĠCent": 2836,
      "ival": 2837,
      "adet": 2838,
      "eles": 2839,
      "iding": 2840,
      "ĠMas": 2841,
      "ĠMary": 2842,
      "unning": 2843,
      "ĠHath": 2844,
      "ĠHouse": 2845,
      "Ġstar": 2846,
      "Ġstage": 2847,
      "ution": 2848,
      "ĠGod": 2849,
      "rain": 2850,
      "cem": 2851,
      "ĠPit": 2852,
      "ĠPro": 2853,
      "ĠPeople": 2854,
      "ĠRed": 2855,
      "ĠRick": 2856,
      "ĠRoy": 2857,
      "ĠFly": 2858,
      "Ġancient": 2859,
      "ership": 2860,
      "190": 2861,
      "osp": 2862,
      "Ġattend": 2863,
      "anded": 2864,
      "ĠWal": 2865,
      "ĠWork": 2866,
      "ĠWee": 2867,
      "Ġselect": 2868,
      "ĠDu": 2869,
      "ĠDoroth": 2870,
      "ĠDunning": 2871,
      "ateur": 2872,
      "Ġchance": 2873,
      "Ġchange": 2874,
      "Ġchaos": 2875,
      "Ġproble": 2876,
      "Ġrank": 2877,
      "aped": 2878,
      "arded": 2879,
      "Ġneg": 2880,
      "Ġword": 2881,
      "order": 2882,
      "Ġincorpor": 2883,
      "Ġshaped": 2884,
      "Ġunits": 2885,
      "Ġclaim": 2886,
      "Ġmanufact": 2887,
      "ogn": 2888,
      "Ġrecogn": 2889,
      "Ġacting": 2890,
      "Ġroute": 2891,
      "Ġapp": 2892,
      "Ġappl": 2893,
      "Ġrespect": 2894,
      "Ġresulted": 2895,
      "Ġspent": 2896,
      "Ġspir": 2897,
      "Ġadapt": 2898,
      "ĠThat": 2899,
      "Ġflint": 2900,
      "Ġbecause": 2901,
      "ressed": 2902,
      "Ġmeet": 2903,
      "Ġcancer": 2904,
      "Ġalbums": 2905,
      "ĠSecond": 2906,
      "Ġtravel": 2907,
      "ighter": 2908,
      "Ġammun": 2909,
      "Ġamateur": 2910,
      "anned": 2911,
      "ĠAustral": 2912,
      "Ġmovement": 2913,
      "Ġtowards": 2914,
      "iews": 2915,
      "Ġservice": 2916,
      "Ġremaining": 2917,
      "Ġmiles": 2918,
      "Ġcharacteristics": 2919,
      "Ġreturn": 2920,
      "ĠOne": 2921,
      "Ġbroad": 2922,
      "aska": 2923,
      "Ġdepart": 2924,
      "Ġdepict": 2925,
      "Ġdepicted": 2926,
      "awa": 2927,
      "ĠFairy": 2928,
      "ibr": 2929,
      "ibility": 2930,
      "Ġissued": 2931,
      "Ġowned": 2932,
      "Ġinstead": 2933,
      "Ġobservations": 2934,
      "Ġentire": 2935,
      "Ġcoins": 2936,
      "Ġmodern": 2937,
      "Ġcompleted": 2938,
      "Ġdemon": 2939,
      "Ġguitar": 2940,
      "Ġcombinations": 2941,
      "ological": 2942,
      "Ġmajority": 2943,
      "ĠSpring": 2944,
      "ĠGreen": 2945,
      "ĠGregor": 2946,
      "Ġreflect": 2947,
      "Ġattempted": 2948,
      "Ġmultiple": 2949,
      "ĠPhil": 2950,
      "Ġfeatured": 2951,
      "Ġbeliefs": 2952,
      "Ġturns": 2953,
      "Ġinstruments": 2954,
      "Ġsoldiers": 2955,
      "ĠGallian": 2956,
      "pendent": 2957,
      "Ġcommunic": 2958,
      "Ġprimary": 2959,
      "ĠMcKay": 2960,
      "ĠChildren": 2961,
      "Ġintroduced": 2962,
      "Ġincreasingly": 2963,
      "Ġdamaged": 2964,
      "Ġaspects": 2965,
      "Ġearlier": 2966,
      "Ġcollabor": 2967,
      "ĠAtenism": 2968,
      "Ġexclud": 2969,
      "Ġfacilities": 2970,
      "ĠHowson": 2971,
      "ĠLicence": 2972,
      "ĠRecord": 2973,
      "Ġrarely": 2974,
      "Ġbombardment": 2975,
      "ĠTotten": 2976,
      "ĠBulloch": 2977,
      "Ġregistered": 2978,
      "Ġopposite": 2979,
      "worthiness": 2980,
      "ĠÃĨsthetic": 2981,
      "Ġbrief": 2982,
      "Ġbrought": 2983,
      "ĠAccording": 2984,
      "ĠHathor": 2985,
      "ĠDorothy": 2986,
      "ĠDunnington": 2987,
      "Ġammunition": 2988,
      "ĠGregorian": 2989,
      ".S": 2990,
      ".g": 2991,
      "27": 2992,
      "400": 2993,
      "cious": 2994,
      "ches": 2995,
      "cause": 2996,
      "cript": 2997,
      "for": 2998,
      "fort": 2999,
      "fety": 3000,
      "ges": 3001,
      "iety": 3002,
      "kh": 3003,
      "like": 3004,
      "min": 3005,
      "na": 3006,
      "ple": 3007,
      "pri": 3008,
      "rus": 3009,
      "ses": 3010,
      "wal": 3011,
      "wick": 3012,
      "¹¯": 3013,
      "Åį": 3014,
      "á¹¯": 3015,
      "Ġident": 3016,
      "Ġtor": 3017,
      "Ġtons": 3018,
      "Ġturned": 3019,
      "Ġtaking": 3020,
      "Ġtax": 3021,
      "erry": 3022,
      "onse": 3023,
      "reet": 3024,
      "render": 3025,
      "edy": 3026,
      "Ġwill": 3027,
      "Ġwind": 3028,
      "Ġways": 3029,
      "Ġsis": 3030,
      "Ġsol": 3031,
      "Ġside": 3032,
      "Ġsites": 3033,
      "ators": 3034,
      "ithe": 3035,
      "itch": 3036,
      "Ġce": 3037,
      "Ġche": 3038,
      "Ġfair": 3039,
      "Ġfund": 3040,
      "Ġfederal": 3041,
      "Ġins": 3042,
      "Ġinform": 3043,
      "Ġinsp": 3044,
      "arn": 3045,
      "arly": 3046,
      "anc": 3047,
      "Ġbi": 3048,
      "Ġbir": 3049,
      "Ġbodies": 3050,
      "Ġbott": 3051,
      "Ġbody": 3052,
      "Ġpist": 3053,
      "Ġpant": 3054,
      "Ġpie": 3055,
      "Ġpair": 3056,
      "isions": 3057,
      "Ġda": 3058,
      "Ġdr": 3059,
      "Ġdou": 3060,
      "Ġdied": 3061,
      "Ġmumm": 3062,
      "Ġtoget": 3063,
      "icide": 3064,
      "Ġgro": 3065,
      "Ġgrew": 3066,
      "Ġhier": 3067,
      "ĠTroph": 3068,
      "ĠTatt": 3069,
      "Ġretain": 3070,
      "ouis": 3071,
      "ĠAw": 3072,
      "ĠAct": 3073,
      "Ġthus": 3074,
      "Ġthrill": 3075,
      "ĠSy": 3076,
      "ĠServ": 3077,
      "ĠSumm": 3078,
      "ĠSquad": 3079,
      "lywo": 3080,
      "Ġled": 3081,
      "Ġlit": 3082,
      "Ġlower": 3083,
      "Ġliter": 3084,
      "Ġlatter": 3085,
      "Ġnight": 3086,
      "stand": 3087,
      "ĠCaptain": 3088,
      "Ġeast": 3089,
      "otes": 3090,
      "otion": 3091,
      "ading": 3092,
      "ĠBro": 3093,
      "tery": 3094,
      "ollywo": 3095,
      "Ġdead": 3096,
      "Ġdeploy": 3097,
      "iment": 3098,
      "ctober": 3099,
      "Ġwithd": 3100,
      "ĠIHL": 3101,
      "uries": 3102,
      "idents": 3103,
      "ĠMe": 3104,
      "ĠMon": 3105,
      "ĠMil": 3106,
      "ĠMid": 3107,
      "ĠMand": 3108,
      "ĠMall": 3109,
      "ĠMusic": 3110,
      "uner": 3111,
      "used": 3112,
      "ĠHen": 3113,
      "ĠHar": 3114,
      "ĠHun": 3115,
      "ĠHart": 3116,
      "ĠHigh": 3117,
      "ĠHann": 3118,
      "Ġstation": 3119,
      "Ġstyle": 3120,
      "utes": 3121,
      "ĠGame": 3122,
      "ĠGreat": 3123,
      "ĠGerm": 3124,
      "umed": 3125,
      "ceed": 3126,
      "ĠPt": 3127,
      "ĠPort": 3128,
      "ĠPict": 3129,
      "ĠRus": 3130,
      "verage": 3131,
      "ĠFollow": 3132,
      "Ġwhat": 3133,
      "Ġconv": 3134,
      "ĠEm": 3135,
      "Ġanime": 3136,
      "ocals": 3137,
      "ifying": 3138,
      "ĠLos": 3139,
      "ĠLater": 3140,
      "ĠLombard": 3141,
      "ĠLouis": 3142,
      "Ġsee": 3143,
      "Ġcomes": 3144,
      "ĠDah": 3145,
      "Ġplaces": 3146,
      "Ġplanned": 3147,
      "ĠJeff": 3148,
      "Ġareas": 3149,
      "agement": 3150,
      "oph": 3151,
      "Ġproc": 3152,
      "ĠIntern": 3153,
      "ability": 3154,
      "Ġworst": 3155,
      "Ġexcept": 3156,
      "Ġexpect": 3157,
      "ĠOctober": 3158,
      "Ġvocals": 3159,
      "Ġund": 3160,
      "Ġshould": 3161,
      "Ġshown": 3162,
      "Ġunit": 3163,
      "Ġcommittee": 3164,
      "ector": 3165,
      "Ġleague": 3166,
      "Ġparts": 3167,
      "ervation": 3168,
      "ization": 3169,
      "Ġenough": 3170,
      "Ġabs": 3171,
      "Ġable": 3172,
      "Ġcomposed": 3173,
      "Ġsched": 3174,
      "Ġscope": 3175,
      "aren": 3176,
      "reek": 3177,
      "Ġregional": 3178,
      "Ġevidence": 3179,
      "Ġcoast": 3180,
      "ipp": 3181,
      "Ġmeas": 3182,
      "Ġassoci": 3183,
      "Ġassociation": 3184,
      "Ġfourth": 3185,
      "ĠNebr": 3186,
      "ĠAng": 3187,
      "ĠAnother": 3188,
      "Ġaerial": 3189,
      "Ġcenter": 3190,
      "Ġcentury": 3191,
      "Ġtraffic": 3192,
      "Ġinde": 3193,
      "Ġarmed": 3194,
      "ĠDef": 3195,
      "ĠDecem": 3196,
      "Ġsupply": 3197,
      "Ġdesignated": 3198,
      "Ġwee": 3199,
      "Ġremainder": 3200,
      "Ġsmaller": 3201,
      "Ġsurf": 3202,
      "Ġsurrender": 3203,
      "Ġpositive": 3204,
      "pedo": 3205,
      "Ġengines": 3206,
      "Ġreturning": 3207,
      "ĠBecause": 3208,
      "Ġminutes": 3209,
      "ĠAllied": 3210,
      "Ġinvol": 3211,
      "Ġdefinition": 3212,
      "ĠMajor": 3213,
      "Ġproduction": 3214,
      "aught": 3215,
      "Ġwriting": 3216,
      "Ġbackground": 3217,
      "orns": 3218,
      "Ġwinning": 3219,
      "Ġcritical": 3220,
      "ĠWarne": 3221,
      "Ġcontrast": 3222,
      "Ġpoor": 3223,
      "Ġissues": 3224,
      "Ġvery": 3225,
      "Ġcounter": 3226,
      "ĠAdri": 3227,
      "ĠIsland": 3228,
      "Ġstrugg": 3229,
      "Ġincreased": 3230,
      "Ġpromin": 3231,
      "Ġrealm": 3232,
      "Ġconcern": 3233,
      "Ġopened": 3234,
      "rics": 3235,
      "Ġcolor": 3236,
      "Ġdirector": 3237,
      "Ġhelped": 3238,
      "Ġcommander": 3239,
      "Ġsomething": 3240,
      "Ġscholars": 3241,
      "Ġcert": 3242,
      "Ġperiods": 3243,
      "Ġresponse": 3244,
      "Ġgovernment": 3245,
      "III": 3246,
      "Ġfuner": 3247,
      "Ġstudy": 3248,
      "Ġstudio": 3249,
      "Ġlevels": 3250,
      "Ġneeded": 3251,
      "Ġeduc": 3252,
      "Ġeffect": 3253,
      "Ġfeatures": 3254,
      "Ġoccur": 3255,
      "Ġinstrument": 3256,
      "ĠÂ£": 3257,
      "Ġtitle": 3258,
      "Ġinjury": 3259,
      "Ġpaint": 3260,
      "Ġbecomes": 3261,
      "Ġbecoming": 3262,
      "Ġinitially": 3263,
      "Ġmorning": 3264,
      "ĠSuicide": 3265,
      "Ġlaun": 3266,
      "Ġchanges": 3267,
      "Ġcasem": 3268,
      "Ġepithe": 3269,
      "urrent": 3270,
      "Ġobjects": 3271,
      "Ġemerged": 3272,
      "Ġschools": 3273,
      "hawken": 3274,
      "ynastic": 3275,
      "ĠHistory": 3276,
      "ĠLanka": 3277,
      "ĠKhan": 3278,
      "ĠGovernor": 3279,
      "Ġmicrolights": 3280,
      "Ġlyrics": 3281,
      "Ġbenef": 3282,
      "Ġseparate": 3283,
      "sequently": 3284,
      "Ġpercussion": 3285,
      "Ġadded": 3286,
      "Ġeventually": 3287,
      "Ġtransferred": 3288,
      "Ġsacred": 3289,
      "ĠPola": 3290,
      "Ġnecessary": 3291,
      "Ġinterview": 3292,
      "Ġassigned": 3293,
      "ĠGeorgia": 3294,
      "Ġfront": 3295,
      "Ġtotal": 3296,
      "ĠAfric": 3297,
      "ĠGods": 3298,
      "ĠWeehawken": 3299,
      "Ġflintlock": 3300,
      "ĠAustralia": 3301,
      "ibrary": 3302,
      "Ġdemonstr": 3303,
      "Ġcollaboration": 3304,
      "Ġbriefly": 3305,
      "Ġtorpedo": 3306,
      "Ġsisters": 3307,
      "Ġbirth": 3308,
      "Ġtogether": 3309,
      "ĠTrophy": 3310,
      "ĠTattnall": 3311,
      "Ġthriller": 3312,
      "ollywood": 3313,
      "ĠMandatory": 3314,
      "ĠMallory": 3315,
      "ĠHanneman": 3316,
      "ĠFollowing": 3317,
      "ĠInternational": 3318,
      "ĠNebraska": 3319,
      "ĠDecember": 3320,
      "29": 3321,
      "300": 3322,
      "64": 3323,
      "800": 3324,
      "AA": 3325,
      "ait": 3326,
      "aan": 3327,
      "away": 3328,
      "bs": 3329,
      "cock": 3330,
      "ec": 3331,
      "ecess": 3332,
      "go": 3333,
      "gart": 3334,
      "joy": 3335,
      "khen": 3336,
      "ls": 3337,
      "ler": 3338,
      "lation": 3339,
      "mir": 3340,
      "mith": 3341,
      "most": 3342,
      "mund": 3343,
      "ney": 3344,
      "oly": 3345,
      "ooth": 3346,
      "pre": 3347,
      "pire": 3348,
      "tent": 3349,
      "uly": 3350,
      "uals": 3351,
      "yal": 3352,
      "ype": 3353,
      "Ġic": 3354,
      "Ġtone": 3355,
      "Ġaverage": 3356,
      "ering": 3357,
      "Ġsl": 3358,
      "Ġsw": 3359,
      "Ġsan": 3360,
      "Ġsou": 3361,
      "orb": 3362,
      "ita": 3363,
      "itical": 3364,
      "itting": 3365,
      "Ġcit": 3366,
      "Ġcart": 3367,
      "Ġcause": 3368,
      "Ġcurrent": 3369,
      "Ġfight": 3370,
      "Ġinh": 3371,
      "aries": 3372,
      "arily": 3373,
      "alk": 3374,
      "alth": 3375,
      "Ġborn": 3376,
      "Ġburned": 3377,
      "ingu": 3378,
      "Ġpast": 3379,
      "Ġpark": 3380,
      "Ġpress": 3381,
      "Ġphen": 3382,
      "ising": 3383,
      "Ġdone": 3384,
      "Ġdrop": 3385,
      "Ġmem": 3386,
      "Ġmach": 3387,
      "Ġmoun": 3388,
      "Ġmale": 3389,
      "Ġmixed": 3390,
      "Ġgirl": 3391,
      "Ġhang": 3392,
      "ĠTar": 3393,
      "ĠTod": 3394,
      "ĠTemp": 3395,
      "Ġred": 3396,
      "Ġread": 3397,
      "let": 3398,
      "ĠAg": 3399,
      "ĠSur": 3400,
      "ĠSpe": 3401,
      "ĠSak": 3402,
      "ĠSab": 3403,
      "ĠSound": 3404,
      "ĠSup": 3405,
      "oms": 3406,
      "iring": 3407,
      "Ġlost": 3408,
      "Ġlove": 3409,
      "Ġlighter": 3410,
      "Ġnon": 3411,
      "Ġnet": 3412,
      "Ġnine": 3413,
      "Ġná¹¯": 3414,
      "stron": 3415,
      "Ġey": 3416,
      "Ġeas": 3417,
      "Ġeld": 3418,
      "Ġeight": 3419,
      "Ġbeings": 3420,
      "oto": 3421,
      "adu": 3422,
      "ĠBah": 3423,
      "ĠBridge": 3424,
      "imin": 3425,
      "cture": 3426,
      "ctors": 3427,
      "urb": 3428,
      "ĠMy": 3429,
      "ĠMin": 3430,
      "ĠHall": 3431,
      "ette": 3432,
      "ully": 3433,
      "Ġstates": 3434,
      "Ġalmost": 3435,
      "rap": 3436,
      "raver": 3437,
      "cend": 3438,
      "ĠPi": 3439,
      "ĠPen": 3440,
      "ĠPeter": 3441,
      "ĠRap": 3442,
      "ĠRub": 3443,
      "ĠNub": 3444,
      "Ġwhite": 3445,
      "Ġcondition": 3446,
      "ĠEast": 3447,
      "ĠEarly": 3448,
      "rips": 3449,
      "ander": 3450,
      "ĠWind": 3451,
      "ĠWomen": 3452,
      "ĠWeb": 3453,
      "ĠDire": 3454,
      "hief": 3455,
      "ĠJuly": 3456,
      "alled": 3457,
      "ested": 3458,
      "Ġairship": 3459,
      "Ġcho": 3460,
      "Ġchap": 3461,
      "Ġchampions": 3462,
      "Ġproject": 3463,
      "Ġprogress": 3464,
      "Ġrather": 3465,
      "Ġrule": 3466,
      "ĠOt": 3467,
      "ĠOther": 3468,
      "Ġnoting": 3469,
      "osts": 3470,
      "Ġval": 3471,
      "Ġtrue": 3472,
      "ported": 3473,
      "mented": 3474,
      "mental": 3475,
      "Ġkee": 3476,
      "Ġkinder": 3477,
      "180": 3478,
      "182": 3479,
      "Ġshr": 3480,
      "Ġshoot": 3481,
      "Ġcontact": 3482,
      "illa": 3483,
      "ously": 3484,
      "Ġleast": 3485,
      "Ġclos": 3486,
      "Ġwhether": 3487,
      "oint": 3488,
      "Ġmanagement": 3489,
      "Ġthemes": 3490,
      "Ġactive": 3491,
      "Ġactions": 3492,
      "Ġimage": 3493,
      "Ġuses": 3494,
      "Ġformal": 3495,
      "Ġformation": 3496,
      "ells": 3497,
      "teneg": 3498,
      "Ġrelated": 3499,
      "Ġrepaired": 3500,
      "Ġregions": 3501,
      "Ġteams": 3502,
      "ounced": 3503,
      "Ġspread": 3504,
      "Ġpray": 3505,
      "Ġpries": 3506,
      "Ġremuner": 3507,
      "Ġado": 3508,
      "Ġworking": 3509,
      "Ġupper": 3510,
      "Ġinterpre": 3511,
      "resses": 3512,
      "Ġassumed": 3513,
      "Ġfinish": 3514,
      "ĠAtum": 3515,
      "Ġsaw": 3516,
      "Ġsoon": 3517,
      "Ġcenturies": 3518,
      "ĠSea": 3519,
      "Ġmaxim": 3520,
      "Ġrepresents": 3521,
      "Ġrepresentative": 3522,
      "Ġsmooth": 3523,
      "Ġarmored": 3524,
      "Ġending": 3525,
      "ĠDep": 3526,
      "ĠDeities": 3527,
      "Ġdesigns": 3528,
      "Ġperspect": 3529,
      "Ġtherefore": 3530,
      "Ġmoney": 3531,
      "Ġwhereas": 3532,
      "Ġknowledge": 3533,
      "pedition": 3534,
      "omena": 3535,
      "clus": 3536,
      "Ġreveal": 3537,
      "Ġbroken": 3538,
      "augh": 3539,
      "ĠYear": 3540,
      "Ġwritings": 3541,
      "Ġdistinct": 3542,
      "Ġdistingu": 3543,
      "Ġtraded": 3544,
      "endar": 3545,
      "atively": 3546,
      "Ġpersonified": 3547,
      "Ġphys": 3548,
      "Ġdoes": 3549,
      "Ġsubsequently": 3550,
      "Ġrail": 3551,
      "Ġraised": 3552,
      "manent": 3553,
      "Ġinstance": 3554,
      "Ġregulated": 3555,
      "Ġregulatory": 3556,
      "Ġversion": 3557,
      "Ġstandard": 3558,
      "Ġexpanded": 3559,
      "ribute": 3560,
      "Ġpromot": 3561,
      "Ġtracks": 3562,
      "Ġannounced": 3563,
      "Ġcollect": 3564,
      "Ġdecomm": 3565,
      "Ġskin": 3566,
      "Ġskills": 3567,
      "Ġcreating": 3568,
      "ymns": 3569,
      "Ġgroups": 3570,
      "Ġdealership": 3571,
      "Ġcovered": 3572,
      "Ġbox": 3573,
      "Ġlisting": 3574,
      "Ġauthority": 3575,
      "Ġfunction": 3576,
      "ĠScott": 3577,
      "ĠCanad": 3578,
      "Ġdenomination": 3579,
      "ĠEdmund": 3580,
      "ĠEngland": 3581,
      "ĠEnglish": 3582,
      "Ġbasic": 3583,
      "rophic": 3584,
      "ĠMany": 3585,
      "Ġsteam": 3586,
      "Ġpredecess": 3587,
      "Ġmatch": 3588,
      "ĠRichards": 3589,
      "Ġanimal": 3590,
      "Ġsuffered": 3591,
      "Ġclosely": 3592,
      "Ġrelationship": 3593,
      "Ġrelationships": 3594,
      "Ġrestrictions": 3595,
      "Ġindicated": 3596,
      "ĠAerodrom": 3597,
      "ĠUniverse": 3598,
      "ĠUniversity": 3599,
      "Ġpurchase": 3600,
      "Ġaffect": 3601,
      "Ġfarm": 3602,
      "Ġmiddle": 3603,
      "ĠExpedition": 3604,
      "Ġextended": 3605,
      "Ġpractices": 3606,
      "Ġinteraction": 3607,
      "Ġsyncret": 3608,
      "Ġaccepted": 3609,
      "ĠJapanese": 3610,
      "ĠXIII": 3611,
      "Ġwanted": 3612,
      "Ġcourse": 3613,
      "Ġbooks": 3614,
      "Ġpolitical": 3615,
      "ĠMemorial": 3616,
      "ĠDivision": 3617,
      "ĠCharac": 3618,
      "Ġtelev": 3619,
      "Ġmanifestations": 3620,
      "Ġenviron": 3621,
      "Ġparticipated": 3622,
      "Ġeconomic": 3623,
      "Ġcredited": 3624,
      "Ġfriends": 3625,
      "Ġconstruction": 3626,
      "Ġlegis": 3627,
      "Ġfloor": 3628,
      "Ġconsisting": 3629,
      "Ġequipment": 3630,
      "Ġawarded": 3631,
      "Ġcults": 3632,
      "Ġcosmos": 3633,
      "Ġfifth": 3634,
      "Ġfailed": 3635,
      "ominant": 3636,
      "ĠDuat": 3637,
      "Ġapplied": 3638,
      "Ġbottom": 3639,
      "Ġpiston": 3640,
      "Ġdouble": 3641,
      "ĠBrook": 3642,
      "Ġdeadline": 3643,
      "ĠMonteneg": 3644,
      "ĠHunwick": 3645,
      "ĠHartford": 3646,
      "ĠLombardo": 3647,
      "Ġprocured": 3648,
      "Ġindependent": 3649,
      "Ġeducation": 3650,
      "Ġlaunched": 3651,
      "garten": 3652,
      "Ġicon": 3653,
      "Ġphenomena": 3654,
      "Ġná¹¯r": 3655,
      "stronom": 3656,
      "Ġelder": 3657,
      "ĠBridgeport": 3658,
      "ĠRubin": 3659,
      "ĠWebb": 3660,
      "Ġkindergarten": 3661,
      "Ġmaximum": 3662,
      "..": 3663,
      ".com": 3664,
      "35": 3665,
      "47": 3666,
      "54": 3667,
      "59": 3668,
      "60": 3669,
      "69": 3670,
      "77": 3671,
      "80": 3672,
      "92": 3673,
      "PL": 3674,
      "bes": 3675,
      "bably": 3676,
      "cope": 3677,
      "ders": 3678,
      "ept": 3679,
      "full": 3680,
      "fire": 3681,
      "gl": 3682,
      "gr": 3683,
      "gon": 3684,
      "ging": 3685,
      "gram": 3686,
      "ham": 3687,
      "hym": 3688,
      "iated": 3689,
      "ique": 3690,
      "jÅį": 3691,
      "ker": 3692,
      "lake": 3693,
      "laces": 3694,
      "ma": 3695,
      "nel": 3696,
      "nowledge": 3697,
      "niews": 3698,
      "oen": 3699,
      "pread": 3700,
      "rance": 3701,
      "rays": 3702,
      "sive": 3703,
      "sions": 3704,
      "ti": 3705,
      "tical": 3706,
      "uki": 3707,
      "vements": 3708,
      "ych": 3709,
      "ªãĤ": 3710,
      "æĪ": 3711,
      "Ġ!": 3712,
      "Ġill": 3713,
      "Ġult": 3714,
      "Ġice": 3715,
      "Ġton": 3716,
      "Ġten": 3717,
      "Ġtide": 3718,
      "Ġtail": 3719,
      "Ġtaken": 3720,
      "heon": 3721,
      "heless": 3722,
      "Ġaut": 3723,
      "inery": 3724,
      "infor": 3725,
      "erous": 3726,
      "ones": 3727,
      "onom": 3728,
      "rel": 3729,
      "recht": 3730,
      "edic": 3731,
      "Ġwest": 3732,
      "Ġwood": 3733,
      "Ġwoman": 3734,
      "Ġwides": 3735,
      "Ġsay": 3736,
      "Ġsoc": 3737,
      "Ġsort": 3738,
      "Ġsense": 3739,
      "aten": 3740,
      "atch": 3741,
      "atives": 3742,
      "Ġ...": 3743,
      "orter": 3744,
      "esp": 3745,
      "Ġcr": 3746,
      "Ġcere": 3747,
      "Ġcate": 3748,
      "Ġcards": 3749,
      "Ġfr": 3750,
      "Ġfig": 3751,
      "Ġfant": 3752,
      "Ġfest": 3753,
      "Ġfully": 3754,
      "ening": 3755,
      "enge": 3756,
      "ari": 3757,
      "arth": 3758,
      "arrow": 3759,
      "ario": 3760,
      "anic": 3761,
      "alers": 3762,
      "Ġbow": 3763,
      "Ġbass": 3764,
      "Ġbought": 3765,
      "Ġbillion": 3766,
      "Ġbridge": 3767,
      "ington": 3768,
      "Ġpe": 3769,
      "Ġpow": 3770,
      "Ġpack": 3771,
      "Ġpage": 3772,
      "isc": 3773,
      "ishes": 3774,
      "isniews": 3775,
      "ases": 3776,
      "Ġdut": 3777,
      "Ġdies": 3778,
      "Ġdark": 3779,
      "Ġdwell": 3780,
      "Ġdata": 3781,
      "Ġdedic": 3782,
      "Ġmot": 3783,
      "Ġmut": 3784,
      "Ġmess": 3785,
      "Ġmph": 3786,
      "Ġmouth": 3787,
      "Ġmember": 3788,
      "Ġmission": 3789,
      "Ġmaps": 3790,
      "Ġmuseum": 3791,
      "Ġmakes": 3792,
      "road": 3793,
      "ica": 3794,
      "Ġhockey": 3795,
      "Ġrend": 3796,
      "Ġreinfor": 3797,
      "lection": 3798,
      "ĠAz": 3799,
      "ĠAle": 3800,
      "ĠAward": 3801,
      "ĠSam": 3802,
      "ĠSuch": 3803,
      "acted": 3804,
      "acquel": 3805,
      "enth": 3806,
      "Ġlot": 3807,
      "Ġlab": 3808,
      "Ġlook": 3809,
      "Ġload": 3810,
      "Ġnort": 3811,
      "Ġnative": 3812,
      "ama": 3813,
      "amity": 3814,
      "amden": 3815,
      "ĠCess": 3816,
      "ĠCity": 3817,
      "ĠCong": 3818,
      "ĠCoy": 3819,
      "ĠCurt": 3820,
      "ĠCamden": 3821,
      "ivals": 3822,
      "otential": 3823,
      "ades": 3824,
      "ĠBay": 3825,
      "ĠBet": 3826,
      "ĠBost": 3827,
      "ĠBill": 3828,
      "ĠBollywood": 3829,
      "olis": 3830,
      "olina": 3831,
      "olution": 3832,
      "Ġasked": 3833,
      "Ġdet": 3834,
      "Ġdelay": 3835,
      "imoto": 3836,
      "hern": 3837,
      "ider": 3838,
      "ĠMer": 3839,
      "ĠMal": 3840,
      "uns": 3841,
      "ĠHind": 3842,
      "ĠHitch": 3843,
      "uled": 3844,
      "ulate": 3845,
      "Ġsting": 3846,
      "Ġstop": 3847,
      "Ġstreet": 3848,
      "ĠGard": 3849,
      "ĠGob": 3850,
      "ĠGreek": 3851,
      "ĠPre": 3852,
      "ĠPri": 3853,
      "ĠPark": 3854,
      "ĠPub": 3855,
      "ĠRel": 3856,
      "ĠRaven": 3857,
      "ĠRober": 3858,
      "ĠRector": 3859,
      "ĠRhym": 3860,
      "vert": 3861,
      "ĠFam": 3862,
      "ĠFort": 3863,
      "ĠNo": 3864,
      "ĠNear": 3865,
      "ĠNile": 3866,
      "ĠNah": 3867,
      "Ġwhose": 3868,
      "rian": 3869,
      "emed": 3870,
      "istant": 3871,
      "Ġanal": 3872,
      "erse": 3873,
      "iform": 3874,
      "ĠWill": 3875,
      "ĠWisniews": 3876,
      "avior": 3877,
      "ĠLt": 3878,
      "Ġsex": 3879,
      "Ġcome": 3880,
      "Ġorders": 3881,
      "ession": 3882,
      "Ġplans": 3883,
      "ĠJacquel": 3884,
      "Ġheav": 3885,
      "ago": 3886,
      "arts": 3887,
      "sely": 3888,
      "oplan": 3889,
      "Ġairworthiness": 3890,
      "Ġchurch": 3891,
      "Ġpropos": 3892,
      "ĠInter": 3893,
      "Ġran": 3894,
      "Ġright": 3895,
      "aph": 3896,
      "Ġneither": 3897,
      "Ġexhib": 3898,
      "Ġexclus": 3899,
      "ĠKick": 3900,
      "ĠKurt": 3901,
      "ĠOf": 3902,
      "Ġve": 3903,
      "Ġvi": 3904,
      "ĠEgyptolog": 3905,
      "Ġkey": 3906,
      "Ġkept": 3907,
      "ĠChurch": 3908,
      "Ġyou": 3909,
      "Ġarr": 3910,
      "Ġshut": 3911,
      "Ġpermanent": 3912,
      "Ġuns": 3913,
      "Ġunable": 3914,
      "Ġunique": 3915,
      "Ġtend": 3916,
      "ĠSte": 3917,
      "ousand": 3918,
      "Ġcommissioned": 3919,
      "Ġleaving": 3920,
      "Ġintended": 3921,
      "ointed": 3922,
      "Ġwhole": 3923,
      "ĠGASA": 3924,
      "Ġrecently": 3925,
      "erve": 3926,
      "Ġenl": 3927,
      "Ġenem": 3928,
      "Ġroyal": 3929,
      "Ġitself": 3930,
      "Ġcompon": 3931,
      "Ġcompany": 3932,
      "Ġspect": 3933,
      "oked": 3934,
      "Ġrelating": 3935,
      "ludes": 3936,
      "Ġrepair": 3937,
      "Ġregular": 3938,
      "Ġregarded": 3939,
      "Ġspores": 3940,
      "Ġprinc": 3941,
      "Ġagency": 3942,
      "Ġagreed": 3943,
      "Ġremov": 3944,
      "Ġremark": 3945,
      "Ġcharge": 3946,
      "Ġcoal": 3947,
      "Ġcoach": 3948,
      "ĠRep": 3949,
      "Ġinterse": 3950,
      "Ġjets": 3951,
      "Ġjud": 3952,
      "Ġdisapp": 3953,
      "Ġdisorder": 3954,
      "Ġmeant": 3955,
      "Ġassemb": 3956,
      "Ġnews": 3957,
      "Ġcarry": 3958,
      "Ġcargo": 3959,
      "Ġfinished": 3960,
      "Ġunderstand": 3961,
      "Ġsafe": 3962,
      "Ġcentral": 3963,
      "ĠSega": 3964,
      "Ġbetter": 3965,
      "ĠBlues": 3966,
      "Ġaccomp": 3967,
      "Ġaccount": 3968,
      "Ġrepresenting": 3969,
      "Ġrecording": 3970,
      "ude": 3971,
      "Ġmyster": 3972,
      "Ġended": 3973,
      "ĠAustria": 3974,
      "158": 3975,
      "Ġmainly": 3976,
      "Ġmoves": 3977,
      "Ġserve": 3978,
      "Ġmonot": 3979,
      "Ġemb": 3980,
      "Ġknow": 3981,
      "Ġknots": 3982,
      "Ġclasses": 3983,
      "ĠBeg": 3984,
      "Ġfollowed": 3985,
      "ĠAlong": 3986,
      "ĠArkadelphia": 3987,
      "Ġdescript": 3988,
      "Ġbroke": 3989,
      "Ġbrown": 3990,
      "ĠBritain": 3991,
      "Ġseconds": 3992,
      "Ġproducing": 3993,
      "ĠYet": 3994,
      "Ġquick": 3995,
      "Ġsevere": 3996,
      "Ġpowered": 3997,
      "Ġimportance": 3998,
      "Ġmetal": 3999,
      "Ġalongside": 4000,
      "Ġrequire": 4001,
      "ĠRaj": 4002,
      "Ġmodel": 4003,
      "Ġhighly": 4004,
      "ĠAddition": 4005,
      "ĠAdmir": 4006,
      "ĠEntry": 4007,
      "Ġdemand": 4008,
      "Ġdemons": 4009,
      "Ġincrease": 4010,
      "obatic": 4011,
      "Ġconnection": 4012,
      "Ġprovide": 4013,
      "ĠItaly": 4014,
      "Ġpreviously": 4015,
      "Ġdirection": 4016,
      "Ġelev": 4017,
      "Ġequated": 4018,
      "ĠIndian": 4019,
      "Ġcommonly": 4020,
      "Ġconsider": 4021,
      "Ġcritics": 4022,
      "ridges": 4023,
      "Ġestablish": 4024,
      "Ġvariety": 4025,
      "Ġlargely": 4026,
      "ranto": 4027,
      "Ġrounds": 4028,
      "ĠCommercial": 4029,
      "Ġelimin": 4030,
      "Ġstatues": 4031,
      "Ġstatistics": 4032,
      "Ġappearances": 4033,
      "Ġreviews": 4034,
      "Ġmissed": 4035,
      "Ġhands": 4036,
      "ĠSenjÅį": 4037,
      "ĠCarolina": 4038,
      "azine": 4039,
      "Ġtwin": 4040,
      "Ġpostc": 4041,
      "Ġapproach": 4042,
      "Ġadditional": 4043,
      "Ġedition": 4044,
      "Ġpassed": 4045,
      "Ġmulti": 4046,
      "ĠPhoen": 4047,
      "Ġdifficulty": 4048,
      "Ġsuggested": 4049,
      "onto": 4050,
      "Ġestimates": 4051,
      "Ġinjured": 4052,
      "ĠGallia": 4053,
      "Ġanimals": 4054,
      "Ġweapon": 4055,
      "boat": 4056,
      "Ġpounds": 4057,
      "Ġmoral": 4058,
      "ĠPeriod": 4059,
      "Ġillustrated": 4060,
      "Ġcases": 4061,
      "Ġfemale": 4062,
      "Ġreplaced": 4063,
      "Ġreferred": 4064,
      "ĠSchool": 4065,
      "ĠWhalers": 4066,
      "Ġexistence": 4067,
      "Ġmaintaining": 4068,
      "Ġpurchased": 4069,
      "Ġpolyt": 4070,
      "hael": 4071,
      "Ġpresence": 4072,
      "Ġmarked": 4073,
      "ĠCoach": 4074,
      "ĠFlight": 4075,
      "Ġimprovements": 4076,
      "Ġbuildings": 4077,
      "Ġjoined": 4078,
      "Ġdestroyed": 4079,
      "Ġlicensed": 4080,
      "Ġlicensing": 4081,
      "Ġflown": 4082,
      "Ġdraw": 4083,
      "Ġlinked": 4084,
      "Ġdeclined": 4085,
      "Ġsuccessfully": 4086,
      "Ġcruisers": 4087,
      "Ġpharaohs": 4088,
      "ĠQue": 4089,
      "Ġsituation": 4090,
      "Ġgenus": 4091,
      "Ġhighest": 4092,
      "Ġconcepts": 4093,
      "Ġvictory": 4094,
      "Ġshift": 4095,
      "Ġpermitted": 4096,
      "Ġuniverse": 4097,
      "Ġindividual": 4098,
      "Ġdefenseman": 4099,
      "Ġresponsibility": 4100,
      "Ġfavorite": 4101,
      "Ġhelicopters": 4102,
      "Ġfalcon": 4103,
      "Ġmusk": 4104,
      "ĠToronto": 4105,
      "Ġreduced": 4106,
      "ĠCenter": 4107,
      "ĠHousefull": 4108,
      "ĠPitlake": 4109,
      "ĠRoyal": 4110,
      "Ġselected": 4111,
      "Ġproblems": 4112,
      "Ġincorporated": 4113,
      "Ġrespectively": 4114,
      "ĠGreenaway": 4115,
      "ĠPhiladelphia": 4116,
      "ĠRecords": 4117,
      "Ġsolar": 4118,
      "Ġpantheon": 4119,
      "Ġpiece": 4120,
      "Ġdaily": 4121,
      "ĠSquadron": 4122,
      "ĠHighway": 4123,
      "Ġstationed": 4124,
      "ĠGerman": 4125,
      "ceeded": 4126,
      "ĠEmpire": 4127,
      "Ġscheduled": 4128,
      "Ġmeasure": 4129,
      "ĠAngeles": 4130,
      "Ġweeks": 4131,
      "Ġinvolving": 4132,
      "Ġprominent": 4133,
      "Ġfunerary": 4134,
      "Ġoccurred": 4135,
      "Ġpaintings": 4136,
      "Ġcasemate": 4137,
      "Ġsanct": 4138,
      "Ġcitiz": 4139,
      "Ġcartridges": 4140,
      "ĠSakimoto": 4141,
      "ĠSabres": 4142,
      "ĠBahrain": 4143,
      "ĠRaphael": 4144,
      "ĠWinds": 4145,
      "ĠDirector": 4146,
      "ĠOtranto": 4147,
      "Ġclosure": 4148,
      "Ġpriests": 4149,
      "Ġadopted": 4150,
      "Ġrevealed": 4151,
      "Ġdistinguished": 4152,
      "Ġphysical": 4153,
      "Ġdecommissioned": 4154,
      "Ġtelevision": 4155,
      "æĪ¦": 4156,
      "Ġultim": 4157,
      "Ġwidespread": 4158,
      "Ġsocial": 4159,
      "Ġceremon": 4160,
      "Ġcategor": 4161,
      "Ġpageant": 4162,
      "ĠCessna": 4163,
      "ĠCongress": 4164,
      "ĠCoyotes": 4165,
      "ĠCurtis": 4166,
      "ĠBetween": 4167,
      "ĠBoston": 4168,
      "ĠHindman": 4169,
      "ĠHitchcock": 4170,
      "ĠGobrecht": 4171,
      "ĠPublic": 4172,
      "ĠRhymes": 4173,
      "ĠNahant": 4174,
      "ĠWisniewski": 4175,
      "ĠJacqueline": 4176,
      "ĠGASAR": 4177,
      "Ġmysterious": 4178,
      "ĠAdmiral": 4179,
      "Ġeliminated": 4180,
      "ĠPhoenix": 4181,
      ".V": 4182,
      "32": 4183,
      "40": 4184,
      "44": 4185,
      "48": 4186,
      "49": 4187,
      "422": 4188,
      "75": 4189,
      "96": 4190,
      "AO": 4191,
      "AR": 4192,
      "CAO": 4193,
      "DT": 4194,
      "af": 4195,
      "aul": 4196,
      "by": 4197,
      "body": 4198,
      "can": 4199,
      "cop": 4200,
      "cure": 4201,
      "da": 4202,
      "dron": 4203,
      "ew": 4204,
      "ex": 4205,
      "ees": 4206,
      "ean": 4207,
      "gic": 4208,
      "gren": 4209,
      "graph": 4210,
      "guns": 4211,
      "haps": 4212,
      "iam": 4213,
      "ium": 4214,
      "jid": 4215,
      "just": 4216,
      "ka": 4217,
      "kin": 4218,
      "lim": 4219,
      "lau": 4220,
      "mar": 4221,
      "ned": 4222,
      "niel": 4223,
      "oic": 4224,
      "pond": 4225,
      "ries": 4226,
      "rated": 4227,
      "rind": 4228,
      "set": 4229,
      "semble": 4230,
      "sbur": 4231,
      "to": 4232,
      "uj": 4233,
      "uel": 4234,
      "uff": 4235,
      "uable": 4236,
      "val": 4237,
      "wing": 4238,
      "wide": 4239,
      "wise": 4240,
      "ya": 4241,
      "yth": 4242,
      "za": 4243,
      "zky": 4244,
      "¡ãĥ": 4245,
      "¥ãĥ": 4246,
      "«ãĤ": 4247,
      "´ãĤ": 4248,
      "´ãģ®": 4249,
      "µm": 4250,
      "åł": 4251,
      "Ġ%": 4252,
      "Ġ+": 4253,
      "Ġrom": 4254,
      "ĠæĪ¦": 4255,
      "Ńãĥ": 4256,
      "Ġtar": 4257,
      "Ġtask": 4258,
      "Ġturre": 4259,
      "Ġtype": 4260,
      "heism": 4261,
      "Ġaid": 4262,
      "Ġaud": 4263,
      "Ġastronom": 4264,
      "ino": 4265,
      "Ġtheories": 4266,
      "onor": 4267,
      "reme": 4268,
      "Ġom": 4269,
      "eding": 4270,
      "Ġwent": 4271,
      "Ġwound": 4272,
      "Ġson": 4273,
      "Ġsport": 4274,
      "Ġsung": 4275,
      "Ġstern": 4276,
      "Ġsales": 4277,
      "Ġsatis": 4278,
      "Ġsoph": 4279,
      "ato": 4280,
      "atform": 4281,
      "ndial": 4282,
      "orph": 4283,
      "orring": 4284,
      "itia": 4285,
      "itish": 4286,
      "Ġcities": 4287,
      "Ġcost": 4288,
      "Ġcross": 4289,
      "Ġcaught": 4290,
      "Ġfut": 4291,
      "Ġfate": 4292,
      "Ġflu": 4293,
      "Ġfles": 4294,
      "Ġfru": 4295,
      "Ġfold": 4296,
      "Ġfield": 4297,
      "Ġfont": 4298,
      "Ġfert": 4299,
      "enes": 4300,
      "enant": 4301,
      "arters": 4302,
      "aled": 4303,
      "alent": 4304,
      "alato": 4305,
      "Ġbr": 4306,
      "Ġbar": 4307,
      "Ġbad": 4308,
      "Ġpan": 4309,
      "Ġple": 4310,
      "Ġpap": 4311,
      "Ġpaper": 4312,
      "isi": 4313,
      "iser": 4314,
      "isation": 4315,
      "isod": 4316,
      "isher": 4317,
      "asury": 4318,
      "Ġmun": 4319,
      "Ġmap": 4320,
      "Ġmass": 4321,
      "Ġmob": 4322,
      "Ġtown": 4323,
      "icial": 4324,
      "icago": 4325,
      "Ġget": 4326,
      "Ġgross": 4327,
      "Ġgrand": 4328,
      "Ġho": 4329,
      "Ġhit": 4330,
      "Ġhop": 4331,
      "Ġhous": 4332,
      "Ġhull": 4333,
      "Ġhabit": 4334,
      "Ġhonor": 4335,
      "ĠTur": 4336,
      "ĠTamp": 4337,
      "ĠTimes": 4338,
      "Ġreb": 4339,
      "Ġrear": 4340,
      "Ġrese": 4341,
      "Ġreform": 4342,
      "Ġreject": 4343,
      "Ġrene": 4344,
      "Ġreported": 4345,
      "leg": 4346,
      "ougl": 4347,
      "ĠAuthor": 4348,
      "ĠAkhen": 4349,
      "Ġthin": 4350,
      "Ġthink": 4351,
      "ĠSal": 4352,
      "ĠSince": 4353,
      "ĠSilver": 4354,
      "lyph": 4355,
      "omes": 4356,
      "oming": 4357,
      "acy": 4358,
      "enty": 4359,
      "iled": 4360,
      "ilies": 4361,
      "ilers": 4362,
      "ilized": 4363,
      "Ġlion": 4364,
      "Ġlang": 4365,
      "Ġlived": 4366,
      "Ġlaw": 4367,
      "Ġleng": 4368,
      "Ġlibrary": 4369,
      "Ġnor": 4370,
      "Ġnone": 4371,
      "Ġnarrow": 4372,
      "stead": 4373,
      "strips": 4374,
      "ĠCle": 4375,
      "ĠCrit": 4376,
      "ĠCoun": 4377,
      "ĠComp": 4378,
      "ĠChief": 4379,
      "Ġwasn": 4380,
      "Ġeag": 4381,
      "Ġeigh": 4382,
      "ĠTheir": 4383,
      "ĠThebes": 4384,
      "iven": 4385,
      "Ġbeam": 4386,
      "Ġforced": 4387,
      "Ġforward": 4388,
      "otive": 4389,
      "otilla": 4390,
      "aded": 4391,
      "addon": 4392,
      "ĠBU": 4393,
      "ĠBres": 4394,
      "ĠBack": 4395,
      "ĠBrind": 4396,
      "aya": 4397,
      "ols": 4398,
      "igation": 4399,
      "ighed": 4400,
      "Ġasc": 4401,
      "Ġask": 4402,
      "iments": 4403,
      "ĠICAO": 4404,
      "urs": 4405,
      "ellow": 4406,
      "idian": 4407,
      "ĠMor": 4408,
      "ĠMic": 4409,
      "ĠMet": 4410,
      "ĠMich": 4411,
      "ĠMumb": 4412,
      "ĠHum": 4413,
      "ĠHorn": 4414,
      "ĠHymns": 4415,
      "ete": 4416,
      "ulace": 4417,
      "Ġstay": 4418,
      "Ġstri": 4419,
      "Ġstained": 4420,
      "Ġstores": 4421,
      "utive": 4422,
      "utenant": 4423,
      "ĠGh": 4424,
      "ĠGil": 4425,
      "ĠGround": 4426,
      "ĠGold": 4427,
      "ĠGames": 4428,
      "ĠGirl": 4429,
      "ume": 4430,
      "umes": 4431,
      "raight": 4432,
      "raham": 4433,
      "ceived": 4434,
      "ĠPers": 4435,
      "ĠPart": 4436,
      "ĠPop": 4437,
      "ĠPred": 4438,
      "ĠPost": 4439,
      "ĠPotential": 4440,
      "ĠRes": 4441,
      "ĠRif": 4442,
      "ĠRoom": 4443,
      "ĠRadet": 4444,
      "verty": 4445,
      "ĠFe": 4446,
      "ĠFin": 4447,
      "ĠFruit": 4448,
      "ĠFederal": 4449,
      "ĠFuj": 4450,
      "thoff": 4451,
      "ĠNon": 4452,
      "ĠNatural": 4453,
      "Ġwhitish": 4454,
      "Ġconstant": 4455,
      "chit": 4456,
      "change": 4457,
      "istr": 4458,
      "Ġang": 4459,
      "Ġanthrop": 4460,
      "ption": 4461,
      "ptic": 4462,
      "osen": 4463,
      "iff": 4464,
      "ify": 4465,
      "ĠWest": 4466,
      "ĠWake": 4467,
      "ĠWales": 4468,
      "ĠWestern": 4469,
      "avid": 4470,
      "pecial": 4471,
      "ĠLast": 4472,
      "Ġsecret": 4473,
      "Ġsequel": 4474,
      "Ġsectors": 4475,
      "Ġcoming": 4476,
      "Ġcomeb": 4477,
      "Ġcomedy": 4478,
      "ĠDue": 4479,
      "ĠDarl": 4480,
      "ĠDarc": 4481,
      "ĠDougl": 4482,
      "ĠDavid": 4483,
      "Ġoracles": 4484,
      "respond": 4485,
      "ameter": 4486,
      "Ġplatform": 4487,
      "ĠJam": 4488,
      "ĠJAR": 4489,
      "Ġsundial": 4490,
      "Ġheard": 4491,
      "Ġhealth": 4492,
      "agl": 4493,
      "agn": 4494,
      "artment": 4495,
      "opolis": 4496,
      "Ġairline": 4497,
      "Ġairstrips": 4498,
      "ĠâĤ": 4499,
      "Ġchall": 4500,
      "Ġchose": 4501,
      "Ġchosen": 4502,
      "Ġpros": 4503,
      "Ġproved": 4504,
      "Ġprobably": 4505,
      "aked": 4506,
      "quate": 4507,
      "abric": 4508,
      "ief": 4509,
      "ieutenant": 4510,
      "Ġrays": 4511,
      "Ġriver": 4512,
      "aples": 4513,
      "Ġexten": 4514,
      "Ġextent": 4515,
      "ĠKhen": 4516,
      "ĠKerry": 4517,
      "ĠKnowledge": 4518,
      "ĠUp": 4519,
      "ĠUnder": 4520,
      "ĠOffic": 4521,
      "ĠOtt": 4522,
      "Ġvul": 4523,
      "Ġvia": 4524,
      "Ġvener": 4525,
      "Ġview": 4526,
      "Ġvint": 4527,
      "Ġveter": 4528,
      "Ġkill": 4529,
      "ĠVI": 4530,
      "ĠVan": 4531,
      "ĠChap": 4532,
      "ĠChampions": 4533,
      "ĠChicago": 4534,
      "perial": 4535,
      "ruce": 4536,
      "Ġyour": 4537,
      "ustom": 4538,
      "183": 4539,
      "185": 4540,
      "187": 4541,
      "Ġsha": 4542,
      "Ġshore": 4543,
      "Ġperception": 4544,
      "Ġcontent": 4545,
      "Ġcontain": 4546,
      "Ġcontribut": 4547,
      "Ġunified": 4548,
      "Ġuniform": 4549,
      "ĠStan": 4550,
      "ĠStud": 4551,
      "ĠStorring": 4552,
      "ĠStaples": 4553,
      "Ġlet": 4554,
      "ĠArniel": 4555,
      "ĠAraya": 4556,
      "ĠHead": 4557,
      "Ġmanaged": 4558,
      "ogen": 4559,
      "oglyph": 4560,
      "Ġrecomm": 4561,
      "Ġrecalled": 4562,
      "imeter": 4563,
      "iza": 4564,
      "izations": 4565,
      "Ġenjoy": 4566,
      "plic": 4567,
      "Ġroom": 4568,
      "Ġroll": 4569,
      "Ġimmed": 4570,
      "achute": 4571,
      "actions": 4572,
      "Ġcompared": 4573,
      "Ġoffice": 4574,
      "Ġoffered": 4575,
      "elled": 4576,
      "elling": 4577,
      "Ġovert": 4578,
      "Ġscen": 4579,
      "Ġscore": 4580,
      "Ġrepet": 4581,
      "Ġbuck": 4582,
      "Ġresemble": 4583,
      "Ġdivided": 4584,
      "Ġdiverse": 4585,
      "key": 4586,
      "Ġoperate": 4587,
      "Ġoperates": 4588,
      "Ġspruce": 4589,
      "Ġprep": 4590,
      "Ġpreced": 4591,
      "Ġprecious": 4592,
      "Ġgoing": 4593,
      "Ġgood": 4594,
      "ĠUnlike": 4595,
      "Ġaground": 4596,
      "Ġaggress": 4597,
      "Ġcharco": 4598,
      "Ġadm": 4599,
      "ĠThus": 4600,
      "Ġflat": 4601,
      "Ġflag": 4602,
      "Ġflood": 4603,
      "Ġflotilla": 4604,
      "issipp": 4605,
      "Ġcoaching": 4606,
      "ĠRev": 4607,
      "Ġinterest": 4608,
      "Ġseasons": 4609,
      "ressing": 4610,
      "Ġjour": 4611,
      "Ġdisp": 4612,
      "Ġdisru": 4613,
      "Ġdispl": 4614,
      "Ġmech": 4615,
      "position": 4616,
      "Ġspeculation": 4617,
      "Ġobtain": 4618,
      "Ġaeroplan": 4619,
      "Ġaerobatic": 4620,
      "Ġsafety": 4621,
      "Ġsoil": 4622,
      "ctioned": 4623,
      "ensive": 4624,
      "ĠSecret": 4625,
      "Ġaccidents": 4626,
      "Ġtraw": 4627,
      "Ġtraits": 4628,
      "Ġrecords": 4629,
      "Ġamb": 4630,
      "Ġarmy": 4631,
      "Ġarmament": 4632,
      "anner": 4633,
      "annel": 4634,
      "Ġattribut": 4635,
      "Ġattached": 4636,
      "Ġsupp": 4637,
      "ranean": 4638,
      "151": 4639,
      "157": 4640,
      "Ġgives": 4641,
      "Ġgunboat": 4642,
      "Ġweighed": 4643,
      "Ġserving": 4644,
      "Ġcreate": 4645,
      "isticated": 4646,
      "Ġsmallest": 4647,
      "Ġsurp": 4648,
      "Ġsurvey": 4649,
      "ismal": 4650,
      "Ġglass": 4651,
      "Ġlocations": 4652,
      "ĠIIFA": 4653,
      "ĠBecht": 4654,
      "Ġminim": 4655,
      "ĠAllen": 4656,
      "Ġdefe": 4657,
      "ĠMaj": 4658,
      "Ġcontinues": 4659,
      "ĠYou": 4660,
      "Ġquest": 4661,
      "ĠLeo": 4662,
      "ĠLeadet": 4663,
      "Ġtrading": 4664,
      "Ġlonger": 4665,
      "Ġpersonnel": 4666,
      "Ġwinner": 4667,
      "Ġphot": 4668,
      "Ġmeteor": 4669,
      "Ġhistoric": 4670,
      "Ġprevent": 4671,
      "aptismal": 4672,
      "Ġofficer": 4673,
      "ibly": 4674,
      "Ġpoverty": 4675,
      "Ġmythology": 4676,
      "Ġinstru": 4677,
      "Ġartwork": 4678,
      "Ġenter": 4679,
      "Ġversions": 4680,
      "Ġvertical": 4681,
      "Ġcount": 4682,
      "Ġmodeling": 4683,
      "Ġhighway": 4684,
      "Ġstanding": 4685,
      "Ġexpressed": 4686,
      "Ġgreatly": 4687,
      "Ġdemo": 4688,
      "Ġstructure": 4689,
      "issioning": 4690,
      "engers": 4691,
      "Ġpromote": 4692,
      "Ġpatch": 4693,
      "Ġpopulace": 4694,
      "Ġannot": 4695,
      "Ġannually": 4696,
      "Ġevening": 4697,
      "Ġsupported": 4698,
      "Ġsupporting": 4699,
      "Ġtraditions": 4700,
      "Ġfungi": 4701,
      "Ġdecisions": 4702,
      "Ġcriticized": 4703,
      "Ġsket": 4704,
      "Ġmaskrays": 4705,
      "Ġritual": 4706,
      "Ġdestination": 4707,
      "ĠSpalato": 4708,
      "Ġrespond": 4709,
      "Ġinfluenced": 4710,
      "dney": 4711,
      "ientific": 4712,
      "nead": 4713,
      "Ġcivilian": 4714,
      "Ġfellow": 4715,
      "ĠApocal": 4716,
      "Ġelite": 4717,
      "Ġstrate": 4718,
      "ummer": 4719,
      "Ġgoverned": 4720,
      "Ġauthorities": 4721,
      "Ġauthorized": 4722,
      "Ġfunctions": 4723,
      "Ġforest": 4724,
      "Ġlicences": 4725,
      "ĠCanaan": 4726,
      "ĠCalif": 4727,
      "ĠCalamity": 4728,
      "Ġshotguns": 4729,
      "Ġtwice": 4730,
      "Ġtwenty": 4731,
      "Ġdenied": 4732,
      "Ġworshipped": 4733,
      "Ġapproxim": 4734,
      "getthoff": 4735,
      "ãĥ´ãĤ": 4736,
      "Ġflex": 4737,
      "ĠDespite": 4738,
      "ĠDescript": 4739,
      "Ġprotection": 4740,
      "Ġidea": 4741,
      "Ġolder": 4742,
      "Ġprize": 4743,
      "Ġlanding": 4744,
      "ĠUSS": 4745,
      "Ġbattlefield": 4746,
      "Ġqualified": 4747,
      "Ġpurpose": 4748,
      "ĠÂµm": 4749,
      "Ġera": 4750,
      "Ġtitled": 4751,
      "iterranean": 4752,
      "Ġcorpor": 4753,
      "Ġcorrespond": 4754,
      "Ġpainted": 4755,
      "Ġpredominant": 4756,
      "Ġdiameter": 4757,
      "Ġdiagn": 4758,
      "ĠRichard": 4759,
      "Ġsuffering": 4760,
      "Ġresulting": 4761,
      "Ġsurrounded": 4762,
      "Ġbattleship": 4763,
      "board": 4764,
      "Ġclubs": 4765,
      "Ġrestrict": 4766,
      "Ġdevolved": 4767,
      "Ġchanged": 4768,
      "Ġintroduction": 4769,
      "Ġrifle": 4770,
      "Ġslowly": 4771,
      "Ġfemales": 4772,
      "ĠAbraham": 4773,
      "Ġepisod": 4774,
      "ĠWhig": 4775,
      "Ġexisting": 4776,
      "ĠOrgan": 4777,
      "ĠOrdnance": 4778,
      "Ġvisual": 4779,
      "Ġshells": 4780,
      "ĠRegular": 4781,
      "Ġearliest": 4782,
      "Ġmaintained": 4783,
      "Ġespecial": 4784,
      "ĠTegetthoff": 4785,
      "ĠLankan": 4786,
      "Ġprocessions": 4787,
      "Ġpractice": 4788,
      "Ġpossible": 4789,
      "ĠGovernment": 4790,
      "Ġmicrolight": 4791,
      "Ġsymbolic": 4792,
      "Ġdreadnoughts": 4793,
      "racks": 4794,
      "Ġsquadron": 4795,
      "Ġcapable": 4796,
      "Ġcapital": 4797,
      "Ġpenet": 4798,
      "Ġrenamed": 4799,
      "ĠSimilar": 4800,
      "amental": 4801,
      "Ġdecline": 4802,
      "Ġsuperior": 4803,
      "Ġrules": 4804,
      "Ġdistributed": 4805,
      "Ġdistribution": 4806,
      "ĠBattlefield": 4807,
      "Ġdetermine": 4808,
      "Ġeconomy": 4809,
      "cape": 4810,
      "Ġwalls": 4811,
      "Ġsituations": 4812,
      "Ġcausing": 4813,
      "Ġhigher": 4814,
      "ĠTreasury": 4815,
      "Ġthreatened": 4816,
      "ĠSajid": 4817,
      "ĠClass": 4818,
      "Ġdeliver": 4819,
      "ĠImperial": 4820,
      "ĠMedia": 4821,
      "ĠMediterranean": 4822,
      "ĠMississipp": 4823,
      "ĠGliding": 4824,
      "ĠPresident": 4825,
      "Ġargued": 4826,
      "Ġacquired": 4827,
      "Ġresponsible": 4828,
      "Ġhelicopter": 4829,
      "385": 4830,
      "burgh": 4831,
      "Ġgranted": 4832,
      "ĠFlying": 4833,
      "Ġattended": 4834,
      "ĠWaldron": 4835,
      "Ġclaimed": 4836,
      "Ġmanufacture": 4837,
      "Ġapparen": 4838,
      "Ġadapted": 4839,
      "Ġdeparted": 4840,
      "Ġdepicting": 4841,
      "Ġreflecting": 4842,
      "Ġcommunication": 4843,
      "Ġexcluded": 4844,
      "Ġwindow": 4845,
      "Ġfundamental": 4846,
      "Ġmummies": 4847,
      "Ġhieroglyph": 4848,
      "ĠSydney": 4849,
      "ĠService": 4850,
      "Ġliterature": 4851,
      "Ġwithdra": 4852,
      "ĠMiddle": 4853,
      "ĠHenry": 4854,
      "ĠPtah": 4855,
      "ĠPictures": 4856,
      "ĠDahau": 4857,
      "Ġexpected": 4858,
      "Ġabsorb": 4859,
      "Ġassociated": 4860,
      "Ġsurface": 4861,
      "ĠAdriatic": 4862,
      "Ġconcerns": 4863,
      "Ġinstrumentation": 4864,
      "Ġepithets": 4865,
      "Ġbenefit": 4866,
      "ĠAfrica": 4867,
      "Ġdemonstrated": 4868,
      "Ġmachinery": 4869,
      "ĠTodd": 4870,
      "ĠAgain": 4871,
      "Ġnetwork": 4872,
      "Ġeyes": 4873,
      "ĠPius": 4874,
      "ĠNubia": 4875,
      "Ġconditions": 4876,
      "Ġchapel": 4877,
      "Ġshootout": 4878,
      "ĠDepartment": 4879,
      "Ġperspective": 4880,
      "aughter": 4881,
      "Ġrailroad": 4882,
      "Ġpredecessors": 4883,
      "ĠAerodrome": 4884,
      "Ġaffected": 4885,
      "Ġfarmland": 4886,
      "ĠCharacters": 4887,
      "Ġenvironmental": 4888,
      "Ġlegislation": 4889,
      "ĠMontenegro": 4890,
      "ªãĤ¢": 4891,
      "Ġwooden": 4892,
      "Ġframe": 4893,
      "Ġfantasy": 4894,
      "Ġpowers": 4895,
      "Ġreinforce": 4896,
      "Ġlottery": 4897,
      "Ġlabel": 4898,
      "Ġdetail": 4899,
      "ĠRobert": 4900,
      "Ġanalys": 4901,
      "ĠEgyptologist": 4902,
      "Ġarrived": 4903,
      "Ġremoved": 4904,
      "Ġassembled": 4905,
      "Ġaccompan": 4906,
      "Ġpostcards": 4907,
      "Ġpolytheistic": 4908,
      "ĠQueen": 4909,
      "Ġcitizens": 4910,
      "Ġceremonies": 4911,
      ".Vision": 4912,
      "sburg": 4913,
      "¡ãĥ«ãĤ": 4914,
      "¥ãĥªãĤ¢": 4915,
      "´ãģ®ãĥ´ãĤ": 4916,
      "åł´ãģ®ãĥ´ãĤ": 4917,
      "ĠæĪ¦åł´ãģ®ãĥ´ãĤ": 4918,
      "Ńãĥ¥ãĥªãĤ¢": 4919,
      "Ġturrets": 4920,
      "Ġsophisticated": 4921,
      "Ġflesh": 4922,
      "Ġmunitions": 4923,
      "ĠTurkey": 4924,
      "ĠTampa": 4925,
      "ĠAkhenaten": 4926,
      "Ġlangu": 4927,
      "Ġlength": 4928,
      "Ġeagle": 4929,
      "Ġeighth": 4930,
      "ĠBreslau": 4931,
      "ĠBackground": 4932,
      "ĠBrindisi": 4933,
      "ĠMumbai": 4934,
      "ĠHornung": 4935,
      "ĠGroundsel": 4936,
      "ĠRadetzky": 4937,
      "Ġcomeback": 4938,
      "ĠDarling": 4939,
      "ĠDarcsen": 4940,
      "ĠDouglas": 4941,
      "Ġextensive": 4942,
      "Ġvintage": 4943,
      "ĠStorrington": 4944,
      "Ġcharcoal": 4945,
      "ĠSecretary": 4946,
      "ĠLeadeth": 4947,
      "Ġapproximately": 4948,
      "Ġcorporate": 4949,
      "Ġespecially": 4950,
      "ĠMississippi": 4951,
      "ĠWaldrons": 4952,
      "Ġapparent": 4953,
      "Ġabsorbed": 4954,
      "¡ãĥ«ãĤŃãĥ¥ãĥªãĤ¢": 4955,
      "ĠæĪ¦åł´ãģ®ãĥ´ãĤ¡ãĥ«ãĤŃãĥ¥ãĥªãĤ¢": 4956,
      "110": 4957,
      "31": 4958,
      "33": 4959,
      "36": 4960,
      "310": 4961,
      "56": 4962,
      "57": 4963,
      "62": 4964,
      "65": 4965,
      "74": 4966,
      "700": 4967,
      "91": 4968,
      "94": 4969,
      "900": 4970,
      "LC": 4971,
      "Matters": 4972,
      "PPL": 4973,
      "VD": 4974,
      "WII": 4975,
      "YO": 4976,
      "aur": 4977,
      "ael": 4978,
      "aign": 4979,
      "ault": 4980,
      "awn": 4981,
      "aete": 4982,
      "be": 4983,
      "ban": 4984,
      "bing": 4985,
      "bra": 4986,
      "che": 4987,
      "cis": 4988,
      "col": 4989,
      "chest": 4990,
      "cceeded": 4991,
      "cutive": 4992,
      "een": 4993,
      "fy": 4994,
      "gest": 4995,
      "gment": 4996,
      "grow": 4997,
      "gments": 4998,
      "gins": 4999,
      "gency": 5000,
      "hm": 5001,
      "hod": 5002,
      "hay": 5003,
      "hum": 5004,
      "hist": 5005,
      "hold": 5006,
      "hicles": 5007,
      "hyth": 5008,
      "ien": 5009,
      "iad": 5010,
      "ios": 5011,
      "iately": 5012,
      "ienced": 5013,
      "ji": 5014,
      "jan": 5015,
      "jou": 5016,
      "kner": 5017,
      "lin": 5018,
      "lav": 5019,
      "load": 5020,
      "lgren": 5021,
      "ming": 5022,
      "mas": 5023,
      "mall": 5024,
      "mak": 5025,
      "mill": 5026,
      "mates": 5027,
      "mann": 5028,
      "mond": 5029,
      "nes": 5030,
      "not": 5031,
      "oo": 5032,
      "over": 5033,
      "oons": 5034,
      "pan": 5035,
      "pid": 5036,
      "rin": 5037,
      "rum": 5038,
      "rate": 5039,
      "rise": 5040,
      "shi": 5041,
      "sell": 5042,
      "trolled": 5043,
      "track": 5044,
      "trophic": 5045,
      "uit": 5046,
      "ukh": 5047,
      "vi": 5048,
      "vÃ": 5049,
      "van": 5050,
      "vanced": 5051,
      "wa": 5052,
      "war": 5053,
      "wan": 5054,
      "went": 5055,
      "ye": 5056,
      "yan": 5057,
      "yard": 5058,
      "ycl": 5059,
      "yoming": 5060,
      "zent": 5061,
      "zawa": 5062,
      "¡n": 5063,
      "ĠÅ": 5064,
      "Ġir": 5065,
      "Ġut": 5066,
      "Ġtast": 5067,
      "Ġtact": 5068,
      "Ġtree": 5069,
      "Ġtreat": 5070,
      "Ġtub": 5071,
      "Ġtip": 5072,
      "Ġtried": 5073,
      "Ġtript": 5074,
      "Ġtaught": 5075,
      "Ġtribute": 5076,
      "Ġau": 5077,
      "Ġaw": 5078,
      "Ġack": 5079,
      "ini": 5080,
      "iny": 5081,
      "inity": 5082,
      "eret": 5083,
      "erce": 5084,
      "erted": 5085,
      "onym": 5086,
      "onjou": 5087,
      "reen": 5088,
      "rest": 5089,
      "Ġod": 5090,
      "Ġour": 5091,
      "Ġwis": 5092,
      "Ġwid": 5093,
      "Ġwear": 5094,
      "Ġwings": 5095,
      "Ġwestern": 5096,
      "Ġwait": 5097,
      "Ġsat": 5098,
      "Ġsem": 5099,
      "Ġsap": 5100,
      "Ġspl": 5101,
      "Ġsound": 5102,
      "Ġsets": 5103,
      "Ġsite": 5104,
      "Ġsink": 5105,
      "Ġsummer": 5106,
      "athe": 5107,
      "atin": 5108,
      "atible": 5109,
      "nds": 5110,
      "orad": 5111,
      "orated": 5112,
      "orary": 5113,
      "orous": 5114,
      "orical": 5115,
      "orway": 5116,
      "itt": 5117,
      "itz": 5118,
      "iting": 5119,
      "itively": 5120,
      "itude": 5121,
      "esides": 5122,
      "Ġcat": 5123,
      "Ġcro": 5124,
      "Ġcow": 5125,
      "Ġcut": 5126,
      "Ġcast": 5127,
      "Ġcase": 5128,
      "Ġcapt": 5129,
      "Ġcaps": 5130,
      "Ġcris": 5131,
      "Ġcyl": 5132,
      "Ġcells": 5133,
      "Ġfre": 5134,
      "Ġfat": 5135,
      "Ġfit": 5136,
      "Ġfan": 5137,
      "Ġfres": 5138,
      "Ġfear": 5139,
      "Ġfast": 5140,
      "Ġfell": 5141,
      "Ġface": 5142,
      "Ġfring": 5143,
      "enn": 5144,
      "enue": 5145,
      "encing": 5146,
      "Ġinn": 5147,
      "Ġinside": 5148,
      "Ġinner": 5149,
      "aro": 5150,
      "aring": 5151,
      "arris": 5152,
      "ana": 5153,
      "ancial": 5154,
      "alm": 5155,
      "alo": 5156,
      "aling": 5157,
      "alty": 5158,
      "Ġbig": 5159,
      "Ġbring": 5160,
      "Ġborder": 5161,
      "Ġbaptismal": 5162,
      "Ġpa": 5163,
      "Ġpou": 5164,
      "Ġpine": 5165,
      "Ġpull": 5166,
      "Ġpace": 5167,
      "Ġpix": 5168,
      "Ġpier": 5169,
      "ises": 5170,
      "isition": 5171,
      "isations": 5172,
      "isia": 5173,
      "asized": 5174,
      "astern": 5175,
      "Ġdang": 5176,
      "Ġdram": 5177,
      "Ġduff": 5178,
      "Ġmis": 5179,
      "Ġmix": 5180,
      "Ġmention": 5181,
      "Ġtold": 5182,
      "Ġtoday": 5183,
      "Ġtools": 5184,
      "roit": 5185,
      "rott": 5186,
      "rotrophic": 5187,
      "ics": 5188,
      "icap": 5189,
      "Ġgot": 5190,
      "Ġgone": 5191,
      "Ġgray": 5192,
      "Ġgained": 5193,
      "Ġgarn": 5194,
      "Ġgarris": 5195,
      "Ġhar": 5196,
      "Ġhire": 5197,
      "Ġhomes": 5198,
      "ĠTV": 5199,
      "ĠTun": 5200,
      "ĠTuck": 5201,
      "ĠTerry": 5202,
      "Ġrever": 5203,
      "Ġrepe": 5204,
      "Ġreally": 5205,
      "Ġreach": 5206,
      "Ġreports": 5207,
      "Ġreception": 5208,
      "lend": 5209,
      "lege": 5210,
      "lebr": 5211,
      "ouver": 5212,
      "outs": 5213,
      "ĠAut": 5214,
      "Ġthing": 5215,
      "Ġthick": 5216,
      "Ġthorns": 5217,
      "Ġthousand": 5218,
      "ĠSat": 5219,
      "ĠSing": 5220,
      "ĠSil": 5221,
      "ĠSun": 5222,
      "ĠSong": 5223,
      "ĠSports": 5224,
      "ĠScre": 5225,
      "ĠSmith": 5226,
      "ĠSmall": 5227,
      "ĠSzent": 5228,
      "lying": 5229,
      "oma": 5230,
      "oment": 5231,
      "omorph": 5232,
      "acific": 5233,
      "entage": 5234,
      "irm": 5235,
      "irt": 5236,
      "irst": 5237,
      "iling": 5238,
      "ilian": 5239,
      "Ġlisted": 5240,
      "Ġliving": 5241,
      "Ġnour": 5242,
      "Ġnorm": 5243,
      "Ġnavy": 5244,
      "Ġnatural": 5245,
      "stone": 5246,
      "stances": 5247,
      "stvÃ": 5248,
      "aming": 5249,
      "amorous": 5250,
      "ĠCome": 5251,
      "ĠClay": 5252,
      "ĠCons": 5253,
      "ĠCatt": 5254,
      "Ġelect": 5255,
      "Ġbeat": 5256,
      "Ġbelow": 5257,
      "Ġfort": 5258,
      "otted": 5259,
      "otry": 5260,
      "othes": 5261,
      "otrophic": 5262,
      "adiad": 5263,
      "odg": 5264,
      "ĠBel": 5265,
      "ĠBest": 5266,
      "ĠBalk": 5267,
      "ĠBanner": 5268,
      "tered": 5269,
      "olic": 5270,
      "Ġasp": 5271,
      "Ġdeb": 5272,
      "Ġdee": 5273,
      "Ġdeck": 5274,
      "Ġdeemed": 5275,
      "cts": 5276,
      "ĠIstvÃ": 5277,
      "urity": 5278,
      "urder": 5279,
      "ĠMod": 5280,
      "ĠMos": 5281,
      "ĠMark": 5282,
      "ĠMaria": 5283,
      "ush": 5284,
      "ĠHab": 5285,
      "ĠHerm": 5286,
      "ĠHang": 5287,
      "ĠHorth": 5288,
      "ĠHait": 5289,
      "ĠHoly": 5290,
      "ĠHonjou": 5291,
      "ett": 5292,
      "etic": 5293,
      "etimes": 5294,
      "etroit": 5295,
      "ula": 5296,
      "ulf": 5297,
      "ules": 5298,
      "ulian": 5299,
      "ulated": 5300,
      "Ġstal": 5301,
      "Ġstore": 5302,
      "Ġstings": 5303,
      "Ġstren": 5304,
      "Ġstating": 5305,
      "Ġstring": 5306,
      "Ġstars": 5307,
      "Ġstages": 5308,
      "Ġstraight": 5309,
      "ĠGen": 5310,
      "ĠGrou": 5311,
      "umn": 5312,
      "ump": 5313,
      "umar": 5314,
      "uments": 5315,
      "umstances": 5316,
      "Ġaltern": 5317,
      "rab": 5318,
      "raz": 5319,
      "rait": 5320,
      "rage": 5321,
      "ceased": 5322,
      "ĠPS": 5323,
      "ĠPe": 5324,
      "ĠPl": 5325,
      "ĠPez": 5326,
      "ĠPerm": 5327,
      "ĠPlayer": 5328,
      "ĠPlan": 5329,
      "ĠPacific": 5330,
      "ĠRace": 5331,
      "ĠRiel": 5332,
      "ĠRoad": 5333,
      "ĠRyan": 5334,
      "ĠFil": 5335,
      "ĠFour": 5336,
      "ĠForm": 5337,
      "ĠFren": 5338,
      "ĠFoot": 5339,
      "ĠFilm": 5340,
      "ĠFaul": 5341,
      "ĠFirst": 5342,
      "ĠNa": 5343,
      "ĠNot": 5344,
      "ĠNote": 5345,
      "ĠNik": 5346,
      "ĠNDT": 5347,
      "ĠNPPL": 5348,
      "ĠNorway": 5349,
      "ĠNadiad": 5350,
      "Ġwhom": 5351,
      "Ġconse": 5352,
      "ĠEU": 5353,
      "ĠEl": 5354,
      "ĠEv": 5355,
      "ĠEdition": 5356,
      "ĠExt": 5357,
      "ĠEye": 5358,
      "rium": 5359,
      "rians": 5360,
      "chn": 5361,
      "ching": 5362,
      "chaete": 5363,
      "erson": 5364,
      "oser": 5365,
      "ocated": 5366,
      "ifiers": 5367,
      "ĠWings": 5368,
      "ĠWood": 5369,
      "ĠWaddon": 5370,
      "ĠWWII": 5371,
      "ĠWYO": 5372,
      "ĠWyoming": 5373,
      "aves": 5374,
      "peare": 5375,
      "ĠLar": 5376,
      "ĠLet": 5377,
      "ĠLive": 5378,
      "ĠLike": 5379,
      "ĠLively": 5380,
      "ĠLocal": 5381,
      "ĠLibrary": 5382,
      "ĠLAA": 5383,
      "ĠLieutenant": 5384,
      "ĠLatin": 5385,
      "Ġsea": 5386,
      "Ġsev": 5387,
      "Ġseed": 5388,
      "Ġseem": 5389,
      "Ġselection": 5390,
      "Ġcommented": 5391,
      "ĠDh": 5392,
      "ĠDen": 5393,
      "ĠDis": 5394,
      "ĠDel": 5395,
      "ĠDave": 5396,
      "ĠDorn": 5397,
      "ĠDhaw": 5398,
      "ĠDasy": 5399,
      "ĠDLC": 5400,
      "ĠDVD": 5401,
      "ĠDetroit": 5402,
      "Ġorange": 5403,
      "essed": 5404,
      "iance": 5405,
      "orted": 5406,
      "hie": 5407,
      "hik": 5408,
      "Ġplacing": 5409,
      "ĠJÃ": 5410,
      "ĠJes": 5411,
      "ĠJose": 5412,
      "ĠJoint": 5413,
      "ĠJulian": 5414,
      "Ġsuitable": 5415,
      "Ġsucceeded": 5416,
      "allow": 5417,
      "Ġheart": 5418,
      "ager": 5419,
      "agree": 5420,
      "ants": 5421,
      "antic": 5422,
      "antry": 5423,
      "opy": 5424,
      "opra": 5425,
      "Ġchannel": 5426,
      "Ġprop": 5427,
      "Ġproper": 5428,
      "ĠâĢĺ": 5429,
      "aks": 5430,
      "ĠInstead": 5431,
      "Ġrac": 5432,
      "Ġram": 5433,
      "Ġrites": 5434,
      "Ġracing": 5435,
      "Ġrhyth": 5436,
      "apis": 5437,
      "onged": 5438,
      "Ġneck": 5439,
      "Ġworn": 5440,
      "Ġworms": 5441,
      "Ġexpl": 5442,
      "Ġexchange": 5443,
      "ĠKa": 5444,
      "ĠKim": 5445,
      "ĠKate": 5446,
      "ĠKap": 5447,
      "ĠKumar": 5448,
      "ansen": 5449,
      "ansion": 5450,
      "ĠOur": 5451,
      "ĠOut": 5452,
      "ĠOilers": 5453,
      "ĠOzawa": 5454,
      "Ġherself": 5455,
      "Ġnotes": 5456,
      "Ġnotion": 5457,
      "Ġvic": 5458,
      "Ġvent": 5459,
      "Ġvol": 5460,
      "Ġvision": 5461,
      "Ġvague": 5462,
      "Ġvocal": 5463,
      "Ġviews": 5464,
      "Ġuter": 5465,
      "Ġuph": 5466,
      "portun": 5467,
      "ĠVen": 5468,
      "ĠVanc": 5469,
      "ĠCharts": 5470,
      "ĠChopra": 5471,
      "Ġyellow": 5472,
      "tsburgh": 5473,
      "Ġarran": 5474,
      "Ġarchit": 5475,
      "Ġshop": 5476,
      "Ġshared": 5477,
      "Ġunc": 5478,
      "Ġunp": 5479,
      "Ġuncon": 5480,
      "Ġunlic": 5481,
      "Ġunoff": 5482,
      "Ġunlock": 5483,
      "Ġunlike": 5484,
      "Ġtext": 5485,
      "Ġtechn": 5486,
      "ĠStand": 5487,
      "ĠStill": 5488,
      "ĠStrait": 5489,
      "ovenes": 5490,
      "Ġotherwise": 5491,
      "ffalo": 5492,
      "Ġcommerce": 5493,
      "Ġlearn": 5494,
      "Ġcloth": 5495,
      "ĠArch": 5496,
      "Ġdescend": 5497,
      "Ġpartially": 5498,
      "Ġrecycl": 5499,
      "izing": 5500,
      "Ġenc": 5501,
      "Ġencl": 5502,
      "Ġensemble": 5503,
      "Ġennead": 5504,
      "Ġacts": 5505,
      "Ġactress": 5506,
      "Ġrow": 5507,
      "Ġroots": 5508,
      "Ġroster": 5509,
      "Ġimm": 5510,
      "asons": 5511,
      "Ġaband": 5512,
      "Ġability": 5513,
      "Ġabilities": 5514,
      "ishing": 5515,
      "phis": 5516,
      "Ġspee": 5517,
      "Ġspeaking": 5518,
      "Ġoffers": 5519,
      "Ġoverl": 5520,
      "Ġovers": 5521,
      "Ġrelate": 5522,
      "Ġrelatively": 5523,
      "Ġscale": 5524,
      "Ġscrap": 5525,
      "Ġscientific": 5526,
      "veland": 5527,
      "Ġreporter": 5528,
      "areness": 5529,
      "resentative": 5530,
      "Ġteammates": 5531,
      "Ġresc": 5532,
      "Ġresurre": 5533,
      "ounts": 5534,
      "Ġdivision": 5535,
      "Ġoperated": 5536,
      "Ġoperating": 5537,
      "Ġspring": 5538,
      "Ġprice": 5539,
      "Ġpref": 5540,
      "Ġprepar": 5541,
      "Ġprehist": 5542,
      "ĠUnlim": 5543,
      "Ġagent": 5544,
      "Ġoutgrow": 5545,
      "Ġremix": 5546,
      "Ġcharter": 5547,
      "teen": 5548,
      "ubis": 5549,
      "Ġadjust": 5550,
      "ĠThoth": 5551,
      "Ġcool": 5552,
      "Ġcoex": 5553,
      "Ġcobra": 5554,
      "ĠRele": 5555,
      "Ġincludes": 5556,
      "ipal": 5557,
      "ression": 5558,
      "Ġjet": 5559,
      "Ġdisagree": 5560,
      "Ġassisted": 5561,
      "Ġassists": 5562,
      "Ġassistant": 5563,
      "Ġassault": 5564,
      "Ġnewsp": 5565,
      "Ġnewcom": 5566,
      "posit": 5567,
      "ĠColomb": 5568,
      "ference": 5569,
      "Ġfeature": 5570,
      "Ġfeeling": 5571,
      "ĠNeck": 5572,
      "ĠNeotry": 5573,
      "Ġconsulted": 5574,
      "Ġconscious": 5575,
      "Ġspecim": 5576,
      "Ġobstru": 5577,
      "ĠAnti": 5578,
      "ĠAnubis": 5579,
      "Ġfind": 5580,
      "Ġfinancial": 5581,
      "Ġunderwent": 5582,
      "ĠAmong": 5583,
      "Ġsailed": 5584,
      "Ġsole": 5585,
      "Ġcentimeter": 5586,
      "ensed": 5587,
      "ĠSeas": 5588,
      "Ġaccused": 5589,
      "rent": 5590,
      "Ġtransit": 5591,
      "Ġmyst": 5592,
      "Ġamount": 5593,
      "ĠColumbia": 5594,
      "Ġends": 5595,
      "ĠDec": 5596,
      "Ġsupposed": 5597,
      "Ġsupreme": 5598,
      "Ġsigns": 5599,
      "Ġsigning": 5600,
      "Ġworldwide": 5601,
      "Ġappeal": 5602,
      "Ġappears": 5603,
      "Ġopportun": 5604,
      "ĠAustrians": 5605,
      "150": 5606,
      "upied": 5607,
      "Ġacres": 5608,
      "Ġcalling": 5609,
      "ilton": 5610,
      "Ġemph": 5611,
      "Ġpositively": 5612,
      "Ġmilitia": 5613,
      "anging": 5614,
      "Ġglamorous": 5615,
      "Ġlocation": 5616,
      "Ġengage": 5617,
      "Ġengraver": 5618,
      "Ġcharacteristic": 5619,
      "itsu": 5620,
      "ĠBeh": 5621,
      "Ġstarts": 5622,
      "Ġstarting": 5623,
      "ĠOnly": 5624,
      "eben": 5625,
      "Ġbattery": 5626,
      "Ġminute": 5627,
      "Ġreleases": 5628,
      "ĠAllies": 5629,
      "Ġlargest": 5630,
      "Ġinvent": 5631,
      "Ġinvoked": 5632,
      "Ġdefine": 5633,
      "Ġdepth": 5634,
      "Ġcontinu": 5635,
      "Ġwrite": 5636,
      "Ġbacking": 5637,
      "Ġdistance": 5638,
      "ĠLeaf": 5639,
      "ĠJohansen": 5640,
      "inting": 5641,
      "ornia": 5642,
      "anks": 5643,
      "Ġsinger": 5644,
      "Ġpowerful": 5645,
      "Ġwinter": 5646,
      "Ġphil": 5647,
      "Ġphyl": 5648,
      "Ġhistorical": 5649,
      "Ġreceiving": 5650,
      "Ġsubstant": 5651,
      "Ġsubmar": 5652,
      "Ġdownload": 5653,
      "rolight": 5654,
      "roscop": 5655,
      "ĠAirport": 5656,
      "ĠAirspace": 5657,
      "ĠAirworthiness": 5658,
      "Ġordered": 5659,
      "Ġcontrad": 5660,
      "Ġdescribe": 5661,
      "Ġinfr": 5662,
      "Ġmythic": 5663,
      "130": 5664,
      "raying": 5665,
      "Ġfounded": 5666,
      "Ġinstall": 5667,
      "Ġdidn": 5668,
      "Ġrequest": 5669,
      "ĠHungary": 5670,
      "Ġartists": 5671,
      "Ġobservation": 5672,
      "eev": 5673,
      "Ġenters": 5674,
      "Ġentrance": 5675,
      "inson": 5676,
      "Ġports": 5677,
      "Ġportion": 5678,
      "Ġmoder": 5679,
      "ĠAdvanced": 5680,
      "Ġsuccession": 5681,
      "Ġexpansion": 5682,
      "Ġcomplete": 5683,
      "Ġdiffered": 5684,
      "Ġfamilies": 5685,
      "ĠChristmas": 5686,
      "obe": 5687,
      "Ġprompted": 5688,
      "Ġguard": 5689,
      "ĠBuffalo": 5690,
      "Ġconnecting": 5691,
      "Ġrealms": 5692,
      "ĠShort": 5693,
      "ĠShakes": 5694,
      "Ġconcurren": 5695,
      "Ġconcussion": 5696,
      "Ġconcludes": 5697,
      "Ġannual": 5698,
      "Ġcombination": 5699,
      "Ġcalendar": 5700,
      "Ġequally": 5701,
      "Ġdecided": 5702,
      "Ġdecades": 5703,
      "Ġcommands": 5704,
      "ĠAssmann": 5705,
      "Ġcriticism": 5706,
      "ologies": 5707,
      "Ġsystems": 5708,
      "Ġdestit": 5709,
      "Ġlimit": 5710,
      "Ġcompeted": 5711,
      "Ġcompetitions": 5712,
      "ĠAmerica": 5713,
      "Ġinfluences": 5714,
      "Ġboard": 5715,
      "Ġgrows": 5716,
      "Ġlists": 5717,
      "ĠCommon": 5718,
      "ĠCommander": 5719,
      "Ġelf": 5720,
      "Ġstatue": 5721,
      "ĠGoals": 5722,
      "ĠGoeben": 5723,
      "Ġallows": 5724,
      "Ġallowing": 5725,
      "Ġheads": 5726,
      "Ġheadqu": 5727,
      "ographies": 5728,
      "Ġgovernor": 5729,
      "Ġpublicly": 5730,
      "ĠMaxim": 5731,
      "Ġsixth": 5732,
      "Ġmissing": 5733,
      "ĠSenate": 5734,
      "ĠSenators": 5735,
      "Ġlicence": 5736,
      "ĠCancer": 5737,
      "ĠCanuck": 5738,
      "ĠCalthrop": 5739,
      "Ġshots": 5740,
      "Ġdiscus": 5741,
      "ãĤĤ": 5742,
      "Ġfruiting": 5743,
      "Ġbreaking": 5744,
      "Ġlesser": 5745,
      "Ġbehavior": 5746,
      "ĠEurop": 5747,
      "Ġfocused": 5748,
      "ypse": 5749,
      "Ġpassing": 5750,
      "Ġpassengers": 5751,
      "ĠEdmon": 5752,
      "Ġprofitable": 5753,
      "Ġmonths": 5754,
      "Ġofficials": 5755,
      "Ġofficially": 5756,
      "ĠEngraver": 5757,
      "Ġprotective": 5758,
      "Ġideas": 5759,
      "Ġideology": 5760,
      "Ġoccas": 5761,
      "Ġfreely": 5762,
      "Ġbasis": 5763,
      "Ġlands": 5764,
      "Ġbegins": 5765,
      "Ġstep": 5766,
      "Ġquality": 5767,
      "Ġqualifiers": 5768,
      "mediate": 5769,
      "ĠÂ°": 5770,
      "Ġerr": 5771,
      "Ġeras": 5772,
      "Ġtitles": 5773,
      "Ġcrucial": 5774,
      "Ġpainting": 5775,
      "ĠRichmond": 5776,
      "pending": 5777,
      "Ġcommunities": 5778,
      "Ġcommunity": 5779,
      "played": 5780,
      "Ġprimarily": 5781,
      "Ġadvanced": 5782,
      "Ġcircumstances": 5783,
      "Ġinitial": 5784,
      "Ġpicks": 5785,
      "Ġrestricted": 5786,
      "Ġdevotion": 5787,
      "Ġdeterior": 5788,
      "ĠPerhaps": 5789,
      "Ġorganizations": 5790,
      "Ġindicates": 5791,
      "Ġincreasing": 5792,
      "Ġsignificantly": 5793,
      "Ġavailability": 5794,
      "Ġillustrator": 5795,
      "Ġslowed": 5796,
      "Ġdamage": 5797,
      "ĠAero": 5798,
      "ĠScholars": 5799,
      "Ġlowest": 5800,
      "ĠMacmill": 5801,
      "ĠPilots": 5802,
      "Ġrunways": 5803,
      "Ġexperience": 5804,
      "Ġexperienced": 5805,
      "Ġexamples": 5806,
      "ĠOrigin": 5807,
      "Ġvisible": 5808,
      "Ġimple": 5809,
      "Ġimpact": 5810,
      "Ġobjective": 5811,
      "Ġamongst": 5812,
      "Ġemergency": 5813,
      "Ġpolychaete": 5814,
      "Ġyoungest": 5815,
      "Ġescape": 5816,
      "Ġballoon": 5817,
      "Ġballoons": 5818,
      "Ġmargins": 5819,
      "Ġmarks": 5820,
      "ĠTeam": 5821,
      "ĠCroat": 5822,
      "ĠCroats": 5823,
      "ĠHistoric": 5824,
      "ĠParrott": 5825,
      "ĠFlint": 5826,
      "Ġconfirm": 5827,
      "Ġextends": 5828,
      "Ġplayoffs": 5829,
      "Ġimproved": 5830,
      "Ġpossession": 5831,
      "Ġsubjects": 5832,
      "ikes": 5833,
      "Ġflowers": 5834,
      "Ġpolice": 5835,
      "Ġdrawn": 5836,
      "Ġmagic": 5837,
      "Ġmagazine": 5838,
      "Ġgrad": 5839,
      "Ġgradu": 5840,
      "Ġhostile": 5841,
      "ĠSimon": 5842,
      "Ġlaborers": 5843,
      "Ġlaboratory": 5844,
      "ĠMemphis": 5845,
      "ĠGuard": 5846,
      "ĠGuide": 5847,
      "ĠGuitar": 5848,
      "ĠFrank": 5849,
      "ĠFrancis": 5850,
      "ĠDivine": 5851,
      "Ġsuperv": 5852,
      "Ġruler": 5853,
      "ĠCharles": 5854,
      "Ġshows": 5855,
      "Ġtelegraph": 5856,
      "Ġenvision": 5857,
      "Ġbrothers": 5858,
      "Ġironclads": 5859,
      "ĠAndrews": 5860,
      "Ġcruiser": 5861,
      "olema": 5862,
      "Ġtreated": 5863,
      "Ġcredit": 5864,
      "Ġcaused": 5865,
      "Ġhousehold": 5866,
      "ĠSafety": 5867,
      "ĠSlovenes": 5868,
      "ĠBarry": 5869,
      "Ġdeliber": 5870,
      "ĠImca": 5871,
      "ĠPreservation": 5872,
      "Ġconverted": 5873,
      "Ġconstructed": 5874,
      "Ġpermission": 5875,
      "Ġuniversal": 5876,
      "Ġspecialized": 5877,
      "Ġindividuals": 5878,
      "Ġacquisition": 5879,
      "Ġdefenses": 5880,
      "Ġdirectly": 5881,
      "Ġefforts": 5882,
      "Ġclear": 5883,
      "Ġcampaign": 5884,
      "Ġbonus": 5885,
      "Ġmerge": 5886,
      "Ġmusical": 5887,
      "Ġhorse": 5888,
      "Ġhoriz": 5889,
      "Ġhappened": 5890,
      "ĠTrans": 5891,
      "ĠTorre": 5892,
      "Ġreasons": 5893,
      "ĠSerbs": 5894,
      "Ġlayer": 5895,
      "Ġlayers": 5896,
      "Ġlifesp": 5897,
      "ivalent": 5898,
      "elescope": 5899,
      "ĠMasand": 5900,
      "ĠPittsburgh": 5901,
      "ĠRediff": 5902,
      "ospel": 5903,
      "ospital": 5904,
      "ĠWorks": 5905,
      "Ġproblem": 5906,
      "Ġranked": 5907,
      "Ġnegot": 5908,
      "Ġnegative": 5909,
      "Ġwords": 5910,
      "Ġrecognised": 5911,
      "Ġspirits": 5912,
      "Ġspiracles": 5913,
      "Ġcommunicating": 5914,
      "ĠRecordings": 5915,
      "wala": 5916,
      "Ġidentified": 5917,
      "Ġtaxi": 5918,
      "Ġceiling": 5919,
      "Ġcheaper": 5920,
      "Ġfairies": 5921,
      "Ġinformed": 5922,
      "Ġbiography": 5923,
      "Ġbiotrophic": 5924,
      "Ġgrown": 5925,
      "Ġhierarch": 5926,
      "Ġretained": 5927,
      "ĠAwards": 5928,
      "ĠSummer": 5929,
      "ĠSummary": 5930,
      "Ġwithdrew": 5931,
      "ĠMilitary": 5932,
      "ĠHarrel": 5933,
      "ĠPtolema": 5934,
      "ĠPortable": 5935,
      "ĠPicture": 5936,
      "ĠRussell": 5937,
      "ĠRushie": 5938,
      "Ġconvin": 5939,
      "Ġconvention": 5940,
      "ĠDahlgren": 5941,
      "arents": 5942,
      "Ġassociations": 5943,
      "Ġsurrendered": 5944,
      "Ġcounterfe": 5945,
      "ĠAdrien": 5946,
      "Ġstruggle": 5947,
      "Ġcertification": 5948,
      "Ġepithet": 5949,
      "Ġfrontier": 5950,
      "ĠAfrican": 5951,
      "Ġslight": 5952,
      "Ġinhab": 5953,
      "Ġinhabit": 5954,
      "Ġmemory": 5955,
      "Ġmounted": 5956,
      "ĠTemple": 5957,
      "ĠTemples": 5958,
      "Ġready": 5959,
      "ĠSoundtrack": 5960,
      "Ġeasily": 5961,
      "Ġairships": 5962,
      "Ġchoice": 5963,
      "Ġchampionship": 5964,
      "Ġchampionships": 5965,
      "Ġvaluable": 5966,
      "Ġkeep": 5967,
      "Ġremuneration": 5968,
      "Ġremunerated": 5969,
      "Ġinterpreted": 5970,
      "Ġcollectively": 5971,
      "Ġfunctioning": 5972,
      "ĠCanadian": 5973,
      "Ġsteamer": 5974,
      "Ġsyncretized": 5975,
      "Ġsyncretism": 5976,
      "ĠBrooke": 5977,
      "ĠBrooks": 5978,
      "Ġiconography": 5979,
      "Ġiconographies": 5980,
      "Ġillness": 5981,
      "Ġautom": 5982,
      "Ġsaying": 5983,
      "Ġsortie": 5984,
      "Ġfestival": 5985,
      "Ġduties": 5986,
      "Ġmutiny": 5987,
      "ĠAzure": 5988,
      "ĠAlex": 5989,
      "Ġnorthern": 5990,
      "ĠBillboard": 5991,
      "ĠMeridian": 5992,
      "Ġstingray": 5993,
      "ĠGarden": 5994,
      "ĠPrior": 5995,
      "ĠWilliam": 5996,
      "ĠIntermediate": 5997,
      "Ġexclusively": 5998,
      "Ġvehicles": 5999,
      "Ġshutout": 6000,
      "ĠSteve": 6001,
      "Ġenlisted": 6002,
      "Ġenemy": 6003,
      "Ġcomponent": 6004,
      "Ġspectrum": 6005,
      "Ġremarked": 6006,
      "ĠRepresentative": 6007,
      "Ġcarrying": 6008,
      "Ġunderstanding": 6009,
      "Ġsafely": 6010,
      "Ġmonotheistic": 6011,
      "ĠBegrand": 6012,
      "ĠAlongside": 6013,
      "Ġdescription": 6014,
      "Ġquickly": 6015,
      "Ġseverely": 6016,
      "Ġrequirements": 6017,
      "ĠRajeev": 6018,
      "ĠAdditionally": 6019,
      "Ġmultiplic": 6020,
      "Ġdrawings": 6021,
      "Ġmusket": 6022,
      "Ġsanctuary": 6023,
      "Ġultimately": 6024,
      "Ġromantic": 6025,
      "Ġtarget": 6026,
      "Ġomn": 6027,
      "Ġsatisfy": 6028,
      "Ġcostumes": 6029,
      "Ġcrosses": 6030,
      "Ġfertility": 6031,
      "Ġbarracks": 6032,
      "Ġpanels": 6033,
      "Ġmobilized": 6034,
      "Ġtowns": 6035,
      "Ġgrossing": 6036,
      "Ġhoused": 6037,
      "Ġhabitats": 6038,
      "Ġresearch": 6039,
      "Ġrejected": 6040,
      "ĠCleveland": 6041,
      "ĠCompet": 6042,
      "Ġasking": 6043,
      "ĠMicrolight": 6044,
      "ĠGilii": 6045,
      "ĠPersonal": 6046,
      "ĠPopMatters": 6047,
      "ĠPredynastic": 6048,
      "ĠPotentials": 6049,
      "ĠFeeding": 6050,
      "ĠFruitbodies": 6051,
      "Ġconstantly": 6052,
      "Ġanthropomorph": 6053,
      "ĠâĤ¹": 6054,
      "Ġchalleng": 6055,
      "Ġprospect": 6056,
      "ĠKhenty": 6057,
      "ĠOfficial": 6058,
      "Ġveteran": 6059,
      "Ġkilled": 6060,
      "ĠChampionship": 6061,
      "ĠStanley": 6062,
      "Ġletter": 6063,
      "Ġrecommended": 6064,
      "Ġimmediately": 6065,
      "Ġprepared": 6066,
      "ĠRevolution": 6067,
      "Ġjourney": 6068,
      "Ġdisplaced": 6069,
      "Ġaerobatics": 6070,
      "Ġattributes": 6071,
      "Ġsurveying": 6072,
      "ĠBechtler": 6073,
      "Ġminimum": 6074,
      "Ġdefeated": 6075,
      "Ġquestion": 6076,
      "Ġphotograph": 6077,
      "Ġmeteorological": 6078,
      "Ġcountries": 6079,
      "Ġannotata": 6080,
      "ĠApocalypse": 6081,
      "Ġstrategic": 6082,
      "ĠCalifornia": 6083,
      "ĠDescription": 6084,
      "Ġpredominantly": 6085,
      "Ġdiagnosed": 6086,
      "Ġrestrictive": 6087,
      "Ġpenetrate": 6088,
      "Ġdelivery": 6089,
      "Ġhieroglyphs": 6090,
      "ĠAgainst": 6091,
      "Ġframework": 6092,
      "Ġaccompanying": 6093,
      "Ġlanguage": 6094,
      "Ġapparently": 6095,
      "humously": 6096,
      "shire": 6097,
      "Ġtactical": 6098,
      "Ġtriptych": 6099,
      "Ġwisdom": 6100,
      "Ġwidth": 6101,
      "Ġsaprotrophic": 6102,
      "Ġcrisis": 6103,
      "Ġcylinder": 6104,
      "Ġpounder": 6105,
      "Ġpixie": 6106,
      "icapped": 6107,
      "Ġgrayish": 6108,
      "Ġgarnered": 6109,
      "Ġgarrison": 6110,
      "ĠTunisia": 6111,
      "ĠSilent": 6112,
      "ĠSongs": 6113,
      "ĠScream": 6114,
      "ĠClayton": 6115,
      "ĠCattaro": 6116,
      "ĠIstvÃ¡n": 6117,
      "ĠMariah": 6118,
      "ĠHabsburg": 6119,
      "ĠHorthy": 6120,
      "ĠHaiti": 6121,
      "Ġstreng": 6122,
      "Ġalternating": 6123,
      "ĠPeziza": 6124,
      "ĠPlanning": 6125,
      "ĠRiela": 6126,
      "ĠFrench": 6127,
      "ĠFootball": 6128,
      "ĠFaulkner": 6129,
      "ĠNDTV": 6130,
      "ĠNadiadwala": 6131,
      "Ġconsecutive": 6132,
      "ĠExtra": 6133,
      "ĠDhawan": 6134,
      "ĠJoseph": 6135,
      "Ġrhythm": 6136,
      "Ġuphold": 6137,
      "ĠVancouver": 6138,
      "Ġarranged": 6139,
      "Ġarchitect": 6140,
      "Ġunlicensed": 6141,
      "Ġunlocked": 6142,
      "Ġrecycled": 6143,
      "Ġenclosed": 6144,
      "ĠUnlimited": 6145,
      "Ġoutgrowth": 6146,
      "Ġnewcomers": 6147,
      "ĠNecklaces": 6148,
      "ĠNeotrygon": 6149,
      "Ġobstructions": 6150,
      "ĠLeafs": 6151,
      "Ġphylogen": 6152,
      "ĠShakespeare": 6153,
      "Ġconcurrency": 6154,
      "ĠCanucks": 6155,
      "ĠEdmonton": 6156,
      "ĠMacmillan": 6157,
      "ĠPtolemaic": 6158,
      "Ġmultiplicity": 6159,
      ".A": 6160,
      "39": 6161,
      "43": 6162,
      "46": 6163,
      "51": 6164,
      "66": 6165,
      "600": 6166,
      "70": 6167,
      "76": 6168,
      "84": 6169,
      "86": 6170,
      "89": 6171,
      "99": 6172,
      "CL": 6173,
      "CN": 6174,
      "Con": 6175,
      "ET": 6176,
      "El": 6177,
      "FR": 6178,
      "GS": 6179,
      "Music": 6180,
      "NA": 6181,
      "OS": 6182,
      "SI": 6183,
      "TZ": 6184,
      "The": 6185,
      "UCN": 6186,
      "aut": 6187,
      "ape": 6188,
      "ba": 6189,
      "bar": 6190,
      "bel": 6191,
      "bian": 6192,
      "bles": 6193,
      "break": 6194,
      "bserv": 6195,
      "bury": 6196,
      "boring": 6197,
      "bai": 6198,
      "cor": 6199,
      "cil": 6200,
      "cest": 6201,
      "card": 6202,
      "come": 6203,
      "cular": 6204,
      "cology": 6205,
      "ded": 6206,
      "ding": 6207,
      "diving": 6208,
      "eous": 6209,
      "ease": 6210,
      "equate": 6211,
      "fu": 6212,
      "fet": 6213,
      "fect": 6214,
      "fare": 6215,
      "fits": 6216,
      "fantry": 6217,
      "gn": 6218,
      "gent": 6219,
      "gow": 6220,
      "gory": 6221,
      "gare": 6222,
      "gree": 6223,
      "gular": 6224,
      "hl": 6225,
      "hin": 6226,
      "hat": 6227,
      "hot": 6228,
      "hood": 6229,
      "happ": 6230,
      "hote": 6231,
      "ih": 6232,
      "iac": 6233,
      "ipt": 6234,
      "ires": 6235,
      "iary": 6236,
      "iative": 6237,
      "iograph": 6238,
      "iopolis": 6239,
      "iTZ": 6240,
      "jun": 6241,
      "jda": 6242,
      "kn": 6243,
      "khe": 6244,
      "kan": 6245,
      "kod": 6246,
      "kone": 6247,
      "kinson": 6248,
      "lf": 6249,
      "list": 6250,
      "lers": 6251,
      "lated": 6252,
      "life": 6253,
      "lisher": 6254,
      "mi": 6255,
      "mer": 6256,
      "met": 6257,
      "more": 6258,
      "mine": 6259,
      "mans": 6260,
      "mark": 6261,
      "mish": 6262,
      "mph": 6263,
      "miss": 6264,
      "mical": 6265,
      "mons": 6266,
      "matic": 6267,
      "mosp": 6268,
      "mologies": 6269,
      "nic": 6270,
      "nell": 6271,
      "nowled": 6272,
      "noon": 6273,
      "oe": 6274,
      "oor": 6275,
      "oing": 6276,
      "oil": 6277,
      "oid": 6278,
      "oore": 6279,
      "oard": 6280,
      "pent": 6281,
      "pist": 6282,
      "power": 6283,
      "phen": 6284,
      "rat": 6285,
      "rim": 6286,
      "rhi": 6287,
      "rick": 6288,
      "rised": 6289,
      "rash": 6290,
      "ratch": 6291,
      "sw": 6292,
      "sur": 6293,
      "sued": 6294,
      "sych": 6295,
      "scure": 6296,
      "tc": 6297,
      "ties": 6298,
      "thes": 6299,
      "tario": 6300,
      "ux": 6301,
      "uz": 6302,
      "uter": 6303,
      "uine": 6304,
      "uge": 6305,
      "uven": 6306,
      "uaries": 6307,
      "uhl": 6308,
      "vant": 6309,
      "wed": 6310,
      "west": 6311,
      "while": 6312,
      "xford": 6313,
      "yb": 6314,
      "yro": 6315,
      "yles": 6316,
      "yram": 6317,
      "zett": 6318,
      "¤ãģ": 6319,
      "Â²": 6320,
      "åĲ": 6321,
      "èª": 6322,
      "èĬ": 6323,
      "Ġx": 6324,
      "Ġz": 6325,
      "Ġ~": 6326,
      "Ġurb": 6327,
      "ĭå": 6328,
      "łkod": 6329,
      "Ġter": 6330,
      "Ġtim": 6331,
      "Ġties": 6332,
      "Ġtum": 6333,
      "Ġtest": 6334,
      "Ġtight": 6335,
      "Ġtable": 6336,
      "Ġtug": 6337,
      "Ġtying": 6338,
      "Ġtakes": 6339,
      "Ġturning": 6340,
      "Ġtert": 6341,
      "Ġtells": 6342,
      "Ġtalent": 6343,
      "Ġtanks": 6344,
      "Ġtelescope": 6345,
      "head": 6346,
      "heres": 6347,
      "heast": 6348,
      "hepri": 6349,
      "herent": 6350,
      "Ġaim": 6351,
      "Ġach": 6352,
      "Ġage": 6353,
      "Ġaug": 6354,
      "inx": 6355,
      "inion": 6356,
      "inus": 6357,
      "inth": 6358,
      "inem": 6359,
      "inine": 6360,
      "inence": 6361,
      "initions": 6362,
      "inisc": 6363,
      "era": 6364,
      "erie": 6365,
      "erters": 6366,
      "ertain": 6367,
      "erbai": 6368,
      "ony": 6369,
      "oned": 6370,
      "onic": 6371,
      "onch": 6372,
      "onette": 6373,
      "ret": 6374,
      "reck": 6375,
      "reement": 6376,
      "regular": 6377,
      "Ġov": 6378,
      "Ġoption": 6379,
      "Ġouter": 6380,
      "Ġwa": 6381,
      "Ġwr": 6382,
      "Ġwore": 6383,
      "Ġwish": 6384,
      "Ġware": 6385,
      "Ġsle": 6386,
      "Ġsand": 6387,
      "Ġsqu": 6388,
      "Ġsave": 6389,
      "Ġsick": 6390,
      "Ġsought": 6391,
      "Ġsoci": 6392,
      "Ġsports": 6393,
      "Ġsitting": 6394,
      "Ġsession": 6395,
      "Ġsaves": 6396,
      "atus": 6397,
      "aters": 6398,
      "atov": 6399,
      "athed": 6400,
      "atures": 6401,
      "atched": 6402,
      "atanic": 6403,
      "nding": 6404,
      "orer": 6405,
      "orrow": 6406,
      "orarily": 6407,
      "itor": 6408,
      "itos": 6409,
      "itated": 6410,
      "itars": 6411,
      "Ġcard": 6412,
      "Ġcure": 6413,
      "Ġcorn": 6414,
      "Ġcaptain": 6415,
      "Ġcrus": 6416,
      "Ġchief": 6417,
      "Ġcustom": 6418,
      "Ġfra": 6419,
      "Ġfall": 6420,
      "Ġfart": 6421,
      "Ġfine": 6422,
      "Ġfix": 6423,
      "Ġfaces": 6424,
      "Ġfreed": 6425,
      "Ġfighter": 6426,
      "Ġfishes": 6427,
      "Ġfuel": 6428,
      "Ġfabric": 6429,
      "enny": 6430,
      "enacted": 6431,
      "enium": 6432,
      "Ġink": 6433,
      "Ġinade": 6434,
      "Ġinau": 6435,
      "Ġinhib": 6436,
      "aration": 6437,
      "arun": 6438,
      "arant": 6439,
      "arity": 6440,
      "arous": 6441,
      "arning": 6442,
      "argare": 6443,
      "ane": 6444,
      "anings": 6445,
      "anish": 6446,
      "anished": 6447,
      "anism": 6448,
      "anthrop": 6449,
      "anwhile": 6450,
      "alted": 6451,
      "alance": 6452,
      "alry": 6453,
      "alace": 6454,
      "alists": 6455,
      "Ġbol": 6456,
      "Ġbul": 6457,
      "Ġblu": 6458,
      "Ġbron": 6459,
      "Ġbold": 6460,
      "Ġbull": 6461,
      "Ġbare": 6462,
      "Ġbound": 6463,
      "Ġbank": 6464,
      "Ġburning": 6465,
      "Ġbesides": 6466,
      "Ġborrow": 6467,
      "Ġbalance": 6468,
      "Ġpil": 6469,
      "Ġpun": 6470,
      "Ġpict": 6471,
      "Ġpend": 6472,
      "Ġpacing": 6473,
      "Ġpiety": 6474,
      "Ġpector": 6475,
      "Ġparents": 6476,
      "Ġpsych": 6477,
      "isonette": 6478,
      "asil": 6479,
      "asers": 6480,
      "ashi": 6481,
      "asgow": 6482,
      "Ġdro": 6483,
      "Ġdom": 6484,
      "Ġdig": 6485,
      "Ġdim": 6486,
      "Ġdate": 6487,
      "Ġdated": 6488,
      "Ġdance": 6489,
      "Ġdry": 6490,
      "Ġdiss": 6491,
      "Ġdors": 6492,
      "Ġdarker": 6493,
      "Ġdying": 6494,
      "Ġdominant": 6495,
      "Ġdaughter": 6496,
      "Ġdwar": 6497,
      "Ġmel": 6498,
      "Ġmist": 6499,
      "Ġmill": 6500,
      "Ġmason": 6501,
      "Ġmile": 6502,
      "Ġmoment": 6503,
      "Ġtour": 6504,
      "Ġtourn": 6505,
      "Ġtoler": 6506,
      "rob": 6507,
      "rose": 6508,
      "roke": 6509,
      "ionally": 6510,
      "icam": 6511,
      "icate": 6512,
      "icts": 6513,
      "Ġga": 6514,
      "Ġgain": 6515,
      "Ġgets": 6516,
      "Ġgerm": 6517,
      "Ġgran": 6518,
      "Ġgau": 6519,
      "Ġgraph": 6520,
      "Ġgreet": 6521,
      "Ġgreen": 6522,
      "Ġgaming": 6523,
      "Ġgospel": 6524,
      "Ġgyro": 6525,
      "Ġhard": 6526,
      "Ġhates": 6527,
      "Ġhired": 6528,
      "Ġhund": 6529,
      "Ġhym": 6530,
      "Ġhyp": 6531,
      "Ġhole": 6532,
      "Ġhorns": 6533,
      "Ġhymns": 6534,
      "Ġhospital": 6535,
      "ĠTO": 6536,
      "ĠTer": 6537,
      "ĠTom": 6538,
      "ĠTam": 6539,
      "ĠTim": 6540,
      "ĠTra": 6541,
      "ĠTest": 6542,
      "ĠTour": 6543,
      "ĠTreat": 6544,
      "ĠTrib": 6545,
      "ĠTaw": 6546,
      "ĠTakes": 6547,
      "ĠTax": 6548,
      "ĠTrack": 6549,
      "ĠTribute": 6550,
      "ĠTrium": 6551,
      "ĠTGS": 6552,
      "Ġrej": 6553,
      "Ġreenacted": 6554,
      "lets": 6555,
      "letic": 6556,
      "oul": 6557,
      "outed": 6558,
      "oupl": 6559,
      "ĠAD": 6560,
      "ĠAay": 6561,
      "ĠAth": 6562,
      "ĠApe": 6563,
      "ĠAther": 6564,
      "ĠAction": 6565,
      "ĠAHL": 6566,
      "ĠAgg": 6567,
      "ĠAks": 6568,
      "ĠAstronom": 6569,
      "ĠAval": 6570,
      "Ġthrash": 6571,
      "ĠSk": 6572,
      "ĠSom": 6573,
      "ĠSac": 6574,
      "ĠSus": 6575,
      "ĠSain": 6576,
      "ĠSpl": 6577,
      "ĠSok": 6578,
      "ĠSub": 6579,
      "ĠSier": 6580,
      "ĠSank": 6581,
      "ĠSund": 6582,
      "ĠSurre": 6583,
[...]
